<pad>	0
<s>	0
</s>	0
<unk>	0
an	-0
ar	-1
▁s	-2
as	-3
▁j	-4
at	-5
▁d	-6
▁u	-7
▁l	-8
▁e	-9
▁c	-10
ac	-11
am	-12
qu	-13
os	-14
▁p	-15
▁m	-16
ak	-17
▁t	-18
ap	-19
jj	-20
▁de	-21
▁a	-22
ti	-23
er	-24
▁y	-25
es	-26
is	-27
na	-28
en	-29
wa	-30
on	-31
in	-32
or	-33
▁h	-34
ir	-35
▁qu	-36
un	-37
ta	-38
▁ju	-39
re	-40
▁el	-41
ay	-42
do	-43
▁que	-44
▁en	-45
us	-46
ra	-47
it	-48
▁uc	-49
ach	-50
▁uk	-51
al	-52
▁n	-53
▁se	-54
▁la	-55
te	-56
amp	-57
▁es	-58
▁k	-59
ch	-60
ara	-61
anac	-62
▁di	-63
▁ch	-64
ip	-65
qh	-66
iw	-67
▁los	-68
ur	-69
anak	-70
ajj	-71
▁jan	-72
asti	-73
ax	-74
▁su	-75
el	-76
om	-77
añ	-78
▁v	-79
ab	-80
▁al	-81
qui	-82
aru	-83
aw	-84
▁re	-85
ad	-86
▁con	-87
äna	-88
▁na	-89
▁jup	-90
il	-91
to	-92
asa	-93
ci	-94
▁dios	-95
▁f	-96
sti	-97
jja	-98
▁wa	-99
im	-100
▁mar	-101
▁-	-102
▁nay	-103
än	-104
▁b	-105
▁o	-106
ata	-107
▁por	-108
ro	-109
▁is	-110
▁"	-111
▁del	-112
▁to	-113
aq	-114
ón	-115
▁no	-116
▁ar	-117
▁cu	-118
▁jum	-119
sa	-120
ani	-121
inak	-122
▁uñ	-123
▁g	-124
apjj	-125
án	-126
▁señ	-127
ien	-128
uy	-129
▁señor	-130
atit	-131
apx	-132
▁lo	-133
▁tu	-134
▁rey	-135
ati	-136
▁le	-137
▁tatit	-138
ier	-139
ía	-140
▁w	-141
id	-142
▁com	-143
ant	-144
qham	-145
ue	-146
atsti	-147
ol	-148
▁lur	-149
iñ	-150
em	-151
▁jak	-152
▁ap	-153
ampi	-154
▁hi	-155
ma	-156
▁uqham	-157
▁sar	-158
res	-159
tr	-160
▁para	-161
▁man	-162
▁am	-163
araqu	-164
di	-165
▁per	-166
▁las	-167
rael	-168
jo	-169
▁mä	-170
▁un	-171
▁sus	-172
▁uca	-173
que	-174
▁des	-175
ojj	-176
▁wal	-177
iwa	-178
▁israel	-179
ca	-180
▁uka	-181
▁ut	-182
▁ac	-183
ri	-184
▁me	-185
▁ll	-186
atak	-187
de	-188
lo	-189
▁as	-190
▁hab	-191
änwa	-192
▁si	-193
da	-194
▁mark	-195
bre	-196
ejj	-197
▁ent	-198
én	-199
▁qh	-200
▁janiw	-201
▁mu	-202
arak	-203
los	-204
go	-205
cu	-206
▁jaq	-207
▁may	-208
ïn	-209
inac	-210
ampis	-211
▁an	-212
iti	-213
arus	-214
ham	-215
▁est	-216
jam	-217
iy	-218
aruw	-219
ás	-220
▁yo	-221
▁kh	-222
ado	-223
▁como	-224
▁lu	-225
▁mi	-226
▁¡	-227
▁jach	-228
ïna	-229
pach	-230
ías	-231
all	-232
äw	-233
aron	-234
▁ph	-235
él	-236
ank	-237
dos	-238
▁us	-239
asip	-240
▁chach	-241
▁¿	-242
▁or	-243
ïnwa	-244
▁cun	-245
▁uñj	-246
apach	-247
dad	-248
ll	-249
▁mun	-250
ando	-251
▁mis	-252
ues	-253
apa	-254
araqui	-255
▁in	-256
▁él	-257
▁marc	-258
▁pero	-259
des	-260
aci	-261
▁tak	-262
▁q	-263
▁ser	-264
uw	-265
▁ha	-266
ut	-267
▁chi	-268
arojj	-269
uer	-270
▁ji	-271
atä	-272
enac	-273
tas	-274
um	-275
▁jes	-276
▁par	-277
▁sac	-278
▁jil	-279
aqu	-280
▁ukham	-281
▁so	-282
▁pro	-283
ces	-284
ix	-285
arac	-286
▁ucatsti	-287
kh	-288
gu	-289
▁utj	-290
ataqui	-291
ana	-292
▁he	-293
la	-294
ente	-295
▁waw	-296
sasa	-297
ajja	-298
bi	-299
▁porque	-300
jos	-301
end	-302
▁yati	-303
äta	-304
▁sasa	-305
▁jiw	-306
▁take	-307
▁taq	-308
asiñ	-309
arux	-310
▁jupanak	-311
▁war	-312
▁una	-313
▁kun	-314
iri	-315
atap	-316
ïr	-317
et	-318
tra	-319
ba	-320
▁uste	-321
▁sal	-322
▁les	-323
chh	-324
up	-325
vid	-326
xa	-327
▁pue	-328
ino	-329
emp	-330
ät	-331
▁ni	-332
▁te	-333
asin	-334
▁ur	-335
ki	-336
ará	-337
▁ustedes	-338
▁ellos	-339
és	-340
▁jer	-341
pa	-342
▁wali	-343
▁esta	-344
raq	-345
▁jac	-346
ec	-347
▁ukatsti	-348
▁jupanac	-349
▁mo	-350
ent	-351
▁todo	-352
▁jakenac	-353
unak	-354
ita	-355
▁ab	-356
anacap	-357
onces	-358
añap	-359
▁da	-360
▁ucanac	-361
co	-362
▁dijo	-363
tejj	-364
▁chur	-365
▁entonces	-366
▁todos	-367
ada	-368
▁hom	-369
ran	-370
atejj	-371
arusti	-372
▁jaqinak	-373
▁sat	-374
▁ci	-375
▁ir	-376
▁cuando	-377
▁esp	-378
se	-379
ist	-380
ek	-381
ux	-382
jer	-383
ce	-384
ia	-385
▁has	-386
fi	-387
▁tier	-388
tix	-389
▁pur	-390
unac	-391
▁ak	-392
▁jud	-393
▁tam	-394
▁im	-395
io	-396
▁lle	-397
itu	-398
▁uqhamarac	-399
tes	-400
cho	-401
erdo	-402
▁r	-403
▁juch	-404
▁david	-405
▁hijo	-406
▁ars	-407
▁tierra	-408
▁sacerdo	-409
▁ucampis	-410
uq	-411
▁lay	-412
▁ist	-413
man	-414
mo	-415
akh	-416
anakap	-417
▁hijos	-418
pan	-419
▁jumanac	-420
▁ay	-421
tros	-422
▁pr	-423
ina	-424
▁aw	-425
▁sobre	-426
za	-427
▁th	-428
isti	-429
▁po	-430
irinak	-431
pu	-432
▁jumanak	-433
▁pueb	-434
le	-435
▁aqu	-436
▁cor	-437
gar	-438
▁taqi	-439
unt	-440
nak	-441
▁pues	-442
▁uñt	-443
▁fue	-444
jan	-445
▁había	-446
▁suma	-447
▁ti	-448
kt	-449
▁warm	-450
usal	-451
ve	-452
ja	-453
▁ucat	-454
onac	-455
▁chiq	-456
▁car	-457
▁fuer	-458
▁jichh	-459
quir	-460
▁her	-461
▁res	-462
▁mayn	-463
ob	-464
▁jerusal	-465
ieron	-466
▁uraq	-467
ed	-468
ían	-469
atix	-470
bién	-471
aqh	-472
isc	-473
naq	-474
▁tun	-475
tar	-476
▁vi	-477
▁mois	-478
▁también	-479
ante	-480
vo	-481
▁ten	-482
▁así	-483
▁chek	-484
cia	-485
▁orak	-486
ió	-487
ones	-488
."	-489
▁hac	-490
▁pueblo	-491
▁parl	-492
tro	-493
az	-494
▁judá	-495
ama	-496
▁ukampis	-497
ill	-498
▁nos	-499
▁'	-500
▁kat	-501
äm	-502
atay	-503
▁israelit	-504
▁entre	-505
▁janir	-506
▁ukat	-507
▁sol	-508
▁prof	-509
▁contra	-510
tay	-511
pi	-512
apxäna	-513
ataki	-514
▁eg	-515
▁lev	-516
▁mal	-517
▁jesus	-518
▁tay	-519
▁yat	-520
der	-521
usti	-522
ig	-523
▁egip	-524
▁chuy	-525
▁jal	-526
das	-527
ka	-528
uc	-529
▁amuy	-530
▁tatitun	-531
aré	-532
▁más	-533
ras	-534
ido	-535
ini	-536
▁ukanak	-537
ados	-538
arán	-539
era	-540
tañ	-541
udad	-542
awa	-543
jäm	-544
me	-545
▁jos	-546
▁ciudad	-547
▁pal	-548
▁día	-549
▁at	-550
tos	-551
apk	-552
añch	-553
▁mí	-554
tam	-555
▁pas	-556
▁pad	-557
ampiw	-558
▁qull	-559
ez	-560
▁of	-561
▁hasta	-562
▁ñ	-563
▁nayr	-564
aws	-565
rañ	-566
▁jerusalén	-567
▁cat	-568
▁ex	-569
sar	-570
tan	-571
ida	-572
ipjj	-573
▁tus	-574
▁este	-575
▁tuk	-576
no	-577
oll	-578
▁chachan	-579
▁han	-580
▁tú	-581
▁jiwa	-582
▁all	-583
▁caw	-584
▁jay	-585
▁esc	-586
▁cam	-587
ación	-588
zo	-589
araquïnwa	-590
ipx	-591
▁sin	-592
▁jilïr	-593
anto	-594
▁ver	-595
▁quien	-596
ús	-597
axa	-598
ib	-599
▁diosan	-600
▁ca	-601
▁yatiy	-602
tawa	-603
▁cr	-604
▁hombre	-605
ten	-606
▁aj	-607
apan	-608
apar	-609
▁sam	-610
aba	-611
apjjäna	-612
▁jo	-613
▁sa	-614
▁qhiti	-615
änti	-616
▁tri	-617
▁casa	-618
ver	-619
▁uy	-620
ic	-621
▁esto	-622
▁phu	-623
ask	-624
uk	-625
asipx	-626
ipan	-627
▁cos	-628
▁pus	-629
xat	-630
anc	-631
▁aca	-632
▁gran	-633
▁ad	-634
ito	-635
▁está	-636
▁pach	-637
▁tok	-638
▁koll	-639
▁son	-640
cio	-641
▁jesús	-642
ero	-643
ín	-644
▁temp	-645
pjj	-646
asipjj	-647
isiñ	-648
▁ucqh	-649
apc	-650
aman	-651
isa	-652
▁cab	-653
▁pre	-654
▁chuym	-655
asir	-656
ún	-657
bres	-658
ión	-659
aquiw	-660
▁nuw	-661
ban	-662
sma	-663
▁lurat	-664
▁sab	-665
onak	-666
cien	-667
tir	-668
▁say	-669
les	-670
iste	-671
tu	-672
ga	-673
▁sarak	-674
▁sänwa	-675
isk	-676
hap	-677
▁tayp	-678
▁toda	-679
enta	-680
anakax	-681
isto	-682
ales	-683
▁lurañ	-684
▁nues	-685
▁ro	-686
▁-¿	-687
▁tien	-688
▁jupasti	-689
araquïna	-690
acht	-691
▁nayan	-692
".	-693
akiw	-694
ïri	-695
eb	-696
▁tuc	-697
▁ah	-698
ora	-699
▁tuq	-700
▁hay	-701
▁padre	-702
▁resp	-703
▁sum	-704
▁uyw	-705
jjat	-706
▁tom	-707
▁egipto	-708
▁ku	-709
gan	-710
▁pe	-711
eron	-712
▁pi	-713
▁dec	-714
pués	-715
▁um	-716
▁wil	-717
aqui	-718
▁luq	-719
elo	-720
emos	-721
▁será	-722
ep	-723
▁khiti	-724
nay	-725
atjja	-726
▁ukkh	-727
▁ella	-728
▁pres	-729
▁tr	-730
▁was	-731
den	-732
▁después	-733
▁tra	-734
▁vol	-735
anacajj	-736
▁añ	-737
▁ob	-738
amti	-739
ankir	-740
▁allí	-741
▁fueron	-742
▁llev	-743
▁llam	-744
piy	-745
dió	-746
▁era	-747
úl	-748
▁ben	-749
▁jut	-750
iru	-751
▁lugar	-752
▁sayt	-753
eta	-754
esti	-755
▁muer	-756
ampar	-757
▁suti	-758
▁altar	-759
▁mon	-760
▁pä	-761
▁hombres	-762
atayna	-763
▁templo	-764
▁aquel	-765
dr	-766
asc	-767
ción	-768
▁uqhamaraqui	-769
▁habl	-770
▁ucasti	-771
▁dos	-772
▁ove	-773
▁viv	-774
▁ven	-775
▁jiway	-776
▁aquí	-777
aniti	-778
irinac	-779
ter	-780
▁tatitur	-781
ñap	-782
▁cunapach	-783
▁ba	-784
▁chh	-785
anakan	-786
▁cawqu	-787
▁medi	-788
amos	-789
▁je	-790
atsa	-791
▁nayax	-792
twa	-793
▁manq	-794
oy	-795
▁herman	-796
▁pa	-797
▁san	-798
uel	-799
▁reyin	-800
▁ve	-801
▁nin	-802
ores	-803
▁iy	-804
▁laycu	-805
antes	-806
▁palab	-807
▁bien	-808
▁mujer	-809
▁pat	-810
▁nayajj	-811
▁comp	-812
mp	-813
arusa	-814
▁todas	-815
▁tatitux	-816
▁aka	-817
▁moisés	-818
ok	-819
▁uch	-820
anaca	-821
▁yuq	-822
▁i	-823
▁iyaws	-824
cha	-825
▁sara	-826
arjam	-827
▁ya	-828
ista	-829
▁nom	-830
por	-831
cun	-832
▁arunac	-833
araquiw	-834
way	-835
▁qued	-836
las	-837
idad	-838
▁hizo	-839
ren	-840
▁trib	-841
▁ante	-842
▁kaw	-843
▁layk	-844
▁yaqh	-845
ento	-846
▁estaba	-847
ejja	-848
usa	-849
▁ampar	-850
anap	-851
▁moises	-852
ul	-853
▁cons	-854
▁muy	-855
asis	-856
▁camp	-857
anï	-858
▁ter	-859
cer	-860
uar	-861
tat	-862
▁yakh	-863
▁mank	-864
▁arunak	-865
▁uno	-866
▁sapa	-867
▁delante	-868
inakap	-869
▁saúl	-870
ír	-871
kir	-872
▁jiwar	-873
▁ley	-874
uch	-875
gel	-876
▁naya	-877
ér	-878
ala	-879
▁mano	-880
ipun	-881
▁desc	-882
äy	-883
▁z	-884
▁anim	-885
▁apan	-886
uego	-887
▁irp	-888
▁jacob	-889
▁jupar	-890
▁mismo	-891
kat	-892
▁mat	-893
▁gr	-894
jas	-895
vi	-896
▁ukasti	-897
itas	-898
quiw	-899
otros	-900
▁lleg	-901
▁medio	-902
eg	-903
ür	-904
aban	-905
anacan	-906
▁awk	-907
cas	-908
cado	-909
▁yok	-910
▁cunjäm	-911
con	-912
▁desde	-913
thap	-914
jjapjj	-915
▁gente	-916
▁cas	-917
▁hacer	-918
▁mant	-919
▁jisc	-920
▁kam	-921
ataque	-922
▁walja	-923
äwi	-924
araquï	-925
ub	-926
kam	-927
quiti	-928
▁pl	-929
▁qué	-930
▁qhip	-931
▁marcan	-932
▁ucapach	-933
rifi	-934
▁ucan	-935
aych	-936
onde	-937
▁sacrifi	-938
▁nosotros	-939
▁sacerdote	-940
▁-¡	-941
aniwa	-942
▁lib	-943
▁respon	-944
▁nombre	-945
▁fr	-946
▁phuqh	-947
▁cuna	-948
quis	-949
añam	-950
encia	-951
▁pon	-952
▁jaw	-953
ura	-954
omp	-955
▁cada	-956
▁yanap	-957
cäna	-958
va	-959
▁vida	-960
▁jik	-961
▁luego	-962
▁yatich	-963
apxarak	-964
äk	-965
▁hecho	-966
▁dej	-967
gun	-968
upaych	-969
▁tunca	-970
▁wak	-971
▁sir	-972
ís	-973
▁ahora	-974
▁tunka	-975
▁yupaych	-976
▁nayraq	-977
▁aru	-978
▁mist	-979
▁mad	-980
ete	-981
▁deb	-982
▁ach	-983
px	-984
▁fil	-985
▁nayrak	-986
apxam	-987
▁eso	-988
oso	-989
▁pho	-990
▁col	-991
aciones	-992
gún	-993
ari	-994
iento	-995
ientes	-996
▁nayar	-997
▁tatitojj	-998
jum	-999
▁markan	-1000
taxa	-1001
endr	-1002
▁apnaq	-1003
ayan	-1004
pas	-1005
▁juc	-1006
amil	-1007
lor	-1008
▁famil	-1009
abil	-1010
▁cual	-1011
▁donde	-1012
▁jupan	-1013
so	-1014
ram	-1015
▁uñis	-1016
▁cosas	-1017
▁agu	-1018
▁amuyt	-1019
asïna	-1020
anqh	-1021
asaw	-1022
▁yän	-1023
tru	-1024
tras	-1025
imsa	-1026
▁amt	-1027
amente	-1028
ciendo	-1029
▁marka	-1030
▁men	-1031
▁días	-1032
ätam	-1033
▁vino	-1034
▁"¡	-1035
abilon	-1036
▁tatituw	-1037
▁tatitu	-1038
▁cre	-1039
tó	-1040
▁mil	-1041
aca	-1042
▁sarnak	-1043
▁mand	-1044
▁ma	-1045
▁mor	-1046
äma	-1047
▁tiemp	-1048
añapataqui	-1049
cat	-1050
▁jiwas	-1051
tajja	-1052
▁jupax	-1053
po	-1054
▁poder	-1055
▁ax	-1056
br	-1057
can	-1058
imp	-1059
▁ajj	-1060
▁taypin	-1061
▁juk	-1062
anacam	-1063
▁pun	-1064
▁diosajj	-1065
▁coraz	-1066
▁apar	-1067
iente	-1068
▁ukapach	-1069
▁reg	-1070
apat	-1071
acia	-1072
▁phokh	-1073
▁luräw	-1074
▁jef	-1075
▁babilon	-1076
▁much	-1077
▁sarnaq	-1078
apjjam	-1079
ich	-1080
iendo	-1081
ío	-1082
▁sino	-1083
▁sirv	-1084
▁mes	-1085
▁wawanacap	-1086
▁ajay	-1087
atakix	-1088
▁tanto	-1089
▁diciendo	-1090
▁pachpa	-1091
▁escu	-1092
▁dicho	-1093
▁janiraquiw	-1094
oz	-1095
unj	-1096
▁wiñ	-1097
kun	-1098
▁jumanacajj	-1099
▁ñanqh	-1100
▁filiste	-1101
▁cunapachatejj	-1102
▁ukax	-1103
▁pan	-1104
▁purin	-1105
▁af	-1106
▁sier	-1107
irá	-1108
unto	-1109
apasti	-1110
uñ	-1111
▁way	-1112
araquiwa	-1113
arás	-1114
ud	-1115
pachan	-1116
mos	-1117
▁salom	-1118
apun	-1119
añataqui	-1120
▁corazón	-1121
▁markanak	-1122
ataw	-1123
▁sea	-1124
▁awqu	-1125
▁soy	-1126
xäna	-1127
▁wiñay	-1128
▁otro	-1129
▁jawir	-1130
ierto	-1131
ias	-1132
▁ucampisa	-1133
usis	-1134
pacha	-1135
▁parte	-1136
▁cristo	-1137
▁ej	-1138
▁sapjj	-1139
▁kuna	-1140
▁descend	-1141
esta	-1142
▁nayasti	-1143
▁oh	-1144
▁katuq	-1145
▁jor	-1146
ith	-1147
▁nayra	-1148
▁años	-1149
▁ucajj	-1150
itat	-1151
araquini	-1152
▁yaqha	-1153
▁yakha	-1154
▁khep	-1155
anakam	-1156
▁estaban	-1157
▁juman	-1158
▁ped	-1159
▁ne	-1160
▁prim	-1161
▁solo	-1162
aya	-1163
▁fi	-1164
▁dice	-1165
ojja	-1166
iruw	-1167
▁jupajj	-1168
apax	-1169
▁abra	-1170
uyap	-1171
qa	-1172
▁tres	-1173
st	-1174
▁habían	-1175
▁suy	-1176
▁khes	-1177
▁ucjj	-1178
▁ef	-1179
▁espír	-1180
die	-1181
äni	-1182
atan	-1183
▁ukhamat	-1184
▁kunjäm	-1185
quiri	-1186
▁janirakiw	-1187
▁sipan	-1188
asi	-1189
▁tiempo	-1190
▁cin	-1191
allk	-1192
empre	-1193
▁profet	-1194
▁reyix	-1195
▁están	-1196
ankh	-1197
▁siempre	-1198
anza	-1199
▁jumanakax	-1200
entos	-1201
je	-1202
▁sido	-1203
▁israelitas	-1204
aparu	-1205
par	-1206
si	-1207
▁fara	-1208
▁yatiñ	-1209
ído	-1210
▁guer	-1211
rend	-1212
▁qhis	-1213
▁cono	-1214
igo	-1215
ot	-1216
aña	-1217
tuy	-1218
▁aqham	-1219
car	-1220
kän	-1221
xapx	-1222
▁estos	-1223
▁apnak	-1224
cen	-1225
cito	-1226
▁jaws	-1227
eo	-1228
ust	-1229
▁entr	-1230
ampix	-1231
su	-1232
▁atip	-1233
pati	-1234
▁jic	-1235
▁habit	-1236
arañ	-1237
isin	-1238
▁nadie	-1239
atï	-1240
gre	-1241
tado	-1242
rit	-1243
▁imp	-1244
▁camino	-1245
▁mara	-1246
▁soldad	-1247
▁yap	-1248
▁muna	-1249
▁puer	-1250
▁sis	-1251
▁hor	-1252
ué	-1253
ven	-1254
illq	-1255
apawa	-1256
▁cuntejj	-1257
añatak	-1258
äniwa	-1259
▁ukhamarak	-1260
▁tenía	-1261
▁arsut	-1262
▁can	-1263
▁nuestro	-1264
▁hermanos	-1265
cido	-1266
kiti	-1267
▁guar	-1268
▁ojos	-1269
▁otros	-1270
▁jupanakax	-1271
có	-1272
▁kank	-1273
oca	-1274
vos	-1275
xt	-1276
▁animal	-1277
cios	-1278
▁khespiy	-1279
ipuniw	-1280
▁espíritu	-1281
▁qillq	-1282
▁saraquïnwa	-1283
▁akham	-1284
▁ovej	-1285
don	-1286
▁junto	-1287
asinjja	-1288
▁acer	-1289
▁dio	-1290
ïs	-1291
arón	-1292
atam	-1293
▁nayaw	-1294
▁marcanac	-1295
qué	-1296
asinsti	-1297
▁reyejj	-1298
eti	-1299
▁aun	-1300
ció	-1301
vió	-1302
▁tant	-1303
▁tem	-1304
▁ucjja	-1305
▁sacerdotes	-1306
▁conf	-1307
▁jikxat	-1308
▁kut	-1309
cän	-1310
▁comer	-1311
▁ayn	-1312
▁tatitusti	-1313
▁mas	-1314
gra	-1315
apajj	-1316
▁mutuy	-1317
ell	-1318
ios	-1319
▁cuer	-1320
▁mur	-1321
▁wila	-1322
janiw	-1323
▁ofre	-1324
atawa	-1325
impi	-1326
cieron	-1327
▁layku	-1328
chi	-1329
▁reci	-1330
▁diosax	-1331
▁israelan	-1332
▁axsar	-1333
▁serán	-1334
▁josué	-1335
▁ajjsar	-1336
▁ejér	-1337
ros	-1338
▁país	-1339
▁cal	-1340
▁ucajja	-1341
▁enem	-1342
▁jupanacajj	-1343
▁wawanakap	-1344
ayäna	-1345
▁nada	-1346
▁ciudades	-1347
tasin	-1348
▁lokt	-1349
ätati	-1350
▁säna	-1351
▁pos	-1352
▁ñankh	-1353
▁pamp	-1354
cam	-1355
▁cut	-1356
nac	-1357
asï	-1358
▁uqhama	-1359
jjäna	-1360
▁cielo	-1361
▁mir	-1362
▁uñacht	-1363
▁kunapach	-1364
ims	-1365
jama	-1366
▁estas	-1367
▁naciones	-1368
▁wasitat	-1369
▁kuntix	-1370
ecer	-1371
▁levant	-1372
▁.	-1373
▁fuego	-1374
▁jumar	-1375
▁catok	-1376
iniwa	-1377
atwa	-1378
dor	-1379
▁qhispiy	-1380
arakïna	-1381
che	-1382
▁palabra	-1383
dán	-1384
!"	-1385
eit	-1386
▁respondió	-1387
anakar	-1388
ena	-1389
ansti	-1390
eros	-1391
▁oro	-1392
▁isa	-1393
▁jisk	-1394
▁jicjjat	-1395
anaka	-1396
irán	-1397
añapataki	-1398
▁aarón	-1399
äwip	-1400
▁pec	-1401
▁disc	-1402
▁jichhajj	-1403
ipk	-1404
▁amor	-1405
▁rec	-1406
▁uraqin	-1407
ár	-1408
▁esa	-1409
▁luqt	-1410
▁pecado	-1411
▁rein	-1412
▁cawquïri	-1413
▁jichhasti	-1414
▁qall	-1415
zas	-1416
quiwa	-1417
▁janch	-1418
hat	-1419
▁pusi	-1420
▁causa	-1421
▁decir	-1422
tal	-1423
▁kamach	-1424
nos	-1425
▁aski	-1426
▁agua	-1427
▁manos	-1428
dido	-1429
aqall	-1430
äs	-1431
íos	-1432
▁pab	-1433
▁ins	-1434
dado	-1435
▁cawquïr	-1436
per	-1437
araquim	-1438
▁cer	-1439
▁kall	-1440
ïniwa	-1441
▁jupanacasti	-1442
▁dis	-1443
akallk	-1444
▁aceit	-1445
ct	-1446
▁cump	-1447
▁volver	-1448
▁palabras	-1449
▁uta	-1450
▁jesusasti	-1451
▁jumajj	-1452
ataquejj	-1453
irak	-1454
▁sap	-1455
▁podr	-1456
iq	-1457
▁der	-1458
tatit	-1459
▁tiene	-1460
ataqu	-1461
▁dar	-1462
uti	-1463
apjje	-1464
▁diosar	-1465
äwinak	-1466
▁sant	-1467
aparuw	-1468
yo	-1469
señ	-1470
usisiñ	-1471
itejj	-1472
renda	-1473
▁muerte	-1474
▁ucatwa	-1475
▁siete	-1476
▁jupanakar	-1477
adas	-1478
quías	-1479
▁kawkh	-1480
▁uru	-1481
▁jucha	-1482
kas	-1483
▁jam	-1484
▁tar	-1485
▁canc	-1486
▁siwa	-1487
▁profeta	-1488
apampi	-1489
▁reb	-1490
tï	-1491
▁dur	-1492
▁kunapachatix	-1493
atäñ	-1494
vor	-1495
▁lan	-1496
▁glor	-1497
▁taqpach	-1498
ätwa	-1499
▁jar	-1500
▁qullan	-1501
▁niy	-1502
▁jiwaray	-1503
gunt	-1504
idos	-1505
▁bar	-1506
▁oraken	-1507
gas	-1508
arse	-1509
▁ofrenda	-1510
pun	-1511
▁voy	-1512
▁yänak	-1513
▁sim	-1514
▁br	-1515
amar	-1516
▁co	-1517
▁for	-1518
▁qullq	-1519
▁mach	-1520
▁angel	-1521
▁bus	-1522
osa	-1523
▁munañ	-1524
▁destru	-1525
▁atipj	-1526
▁quier	-1527
▁jaqin	-1528
ens	-1529
apxi	-1530
▁jupa	-1531
▁tribu	-1532
▁bu	-1533
mb	-1534
▁arum	-1535
▁imant	-1536
ede	-1537
▁vac	-1538
▁babilonia	-1539
▁arc	-1540
▁salomón	-1541
anjja	-1542
ätawa	-1543
▁reino	-1544
▁jupanakasti	-1545
▁pregunt	-1546
jeron	-1547
▁"¿	-1548
▁eran	-1549
atakiw	-1550
cit	-1551
▁orden	-1552
▁juchañch	-1553
▁abraham	-1554
▁famili	-1555
▁kawk	-1556
▁samar	-1557
▁jumax	-1558
zar	-1559
▁ra	-1560
▁ese	-1561
▁khith	-1562
▁sacrificio	-1563
ientos	-1564
▁qhitinac	-1565
akhes	-1566
aran	-1567
▁jupanacarojj	-1568
igos	-1569
irux	-1570
▁jordán	-1571
▁dado	-1572
▁nuwasiñ	-1573
▁utt	-1574
▁markar	-1575
ña	-1576
▁inti	-1577
▁qhit	-1578
▁sigu	-1579
▁conti	-1580
▁saraq	-1581
▁ofrend	-1582
▁jis	-1583
▁waxt	-1584
▁carn	-1585
anacasti	-1586
lan	-1587
ichh	-1588
▁prop	-1589
▁ajll	-1590
▁ukx	-1591
▁jaqix	-1592
▁lurir	-1593
ientras	-1594
▁justi	-1595
▁salv	-1596
▁verdad	-1597
▁tor	-1598
▁juma	-1599
▁kor	-1600
▁reun	-1601
▁arsta	-1602
iraqu	-1603
▁marca	-1604
arakï	-1605
ucr	-1606
cänti	-1607
▁judi	-1608
pul	-1609
tap	-1610
▁tukuy	-1611
nado	-1612
▁segu	-1613
araki	-1614
▁puso	-1615
▁ucatjja	-1616
▁munasiñ	-1617
▁rep	-1618
▁tucuy	-1619
▁ñanqha	-1620
äwinac	-1621
ern	-1622
▁hermano	-1623
▁quienes	-1624
▁mientras	-1625
▁ucqhajja	-1626
▁hace	-1627
li	-1628
▁moab	-1629
▁ejer	-1630
▁janipuniw	-1631
▁vez	-1632
titu	-1633
▁envi	-1634
▁hum	-1635
▁jesucr	-1636
▁aleg	-1637
apxani	-1638
▁tab	-1639
▁mayni	-1640
▁sangre	-1641
cl	-1642
▁jaqu	-1643
▁campam	-1644
asipk	-1645
atac	-1646
▁otra	-1647
▁hacia	-1648
dia	-1649
▁pied	-1650
cog	-1651
▁thiy	-1652
cta	-1653
anquir	-1654
ewa	-1655
ampejj	-1656
▁uñjas	-1657
▁benjam	-1658
▁sapx	-1659
▁jaken	-1660
▁eng	-1661
▁espada	-1662
▁jerusalen	-1663
▁según	-1664
▁bendi	-1665
▁descendientes	-1666
erá	-1667
cani	-1668
▁tan	-1669
▁monte	-1670
▁jiskt	-1671
isi	-1672
▁buen	-1673
▁jichhax	-1674
▁antes	-1675
ona	-1676
apänwa	-1677
ucu	-1678
▁haré	-1679
bajo	-1680
pachaw	-1681
▁sí	-1682
asit	-1683
▁án	-1684
▁mundo	-1685
▁jakenacajj	-1686
kani	-1687
▁asiri	-1688
▁ech	-1689
jamaw	-1690
▁sacerdoten	-1691
▁alajj	-1692
etas	-1693
eza	-1694
▁habr	-1695
▁lado	-1696
▁mus	-1697
▁elis	-1698
▁jefes	-1699
▁reyip	-1700
apsa	-1701
▁sarakïnwa	-1702
▁hon	-1703
känti	-1704
▁arust	-1705
▁cul	-1706
▁nab	-1707
▁arm	-1708
▁desp	-1709
anos	-1710
kañ	-1711
▁siervo	-1712
▁dijeron	-1713
act	-1714
äx	-1715
▁jiwat	-1716
▁jalt	-1717
▁reyisti	-1718
▁uma	-1719
▁chik	-1720
▁kell	-1721
▁wawa	-1722
ayasiñ	-1723
▁noche	-1724
▁desierto	-1725
▁jupanakarux	-1726
ampiru	-1727
▁ez	-1728
irip	-1729
áb	-1730
argo	-1731
▁fal	-1732
▁efra	-1733
▁aps	-1734
▁ñankha	-1735
▁ask	-1736
iraqui	-1737
▁siri	-1738
▁justicia	-1739
▁alax	-1740
▁tendr	-1741
▁luz	-1742
▁joab	-1743
▁paqall	-1744
ano	-1745
▁año	-1746
▁ayll	-1747
▁muchos	-1748
▁suce	-1749
▁voz	-1750
rado	-1751
▁algun	-1752
▁jaqinakax	-1753
▁jus	-1754
▁reyes	-1755
gr	-1756
▁jisct	-1757
▁walt	-1758
▁pakallk	-1759
▁josé	-1760
▁taqin	-1761
cañ	-1762
iera	-1763
▁eres	-1764
▁katuy	-1765
▁escuch	-1766
▁contes	-1767
▁tal	-1768
atro	-1769
▁comen	-1770
taway	-1771
▁santo	-1772
▁diosam	-1773
▁kunjämtix	-1774
▁val	-1775
ph	-1776
▁escla	-1777
▁recib	-1778
▁fin	-1779
▁manera	-1780
▁urunak	-1781
arjama	-1782
▁kimsa	-1783
▁testi	-1784
▁bas	-1785
▁bet	-1786
▁ukan	-1787
zó	-1788
rib	-1789
▁beb	-1790
▁qhitinacatejj	-1791
▁cay	-1792
▁jerem	-1793
▁incien	-1794
▁jilat	-1795
tor	-1796
upx	-1797
cama	-1798
▁jays	-1799
▁sipansa	-1800
▁emb	-1801
ituwa	-1802
▁madre	-1803
▁chachax	-1804
▁vein	-1805
▁apthap	-1806
▁jon	-1807
eos	-1808
irï	-1809
▁gob	-1810
▁nue	-1811
▁cuar	-1812
▁kankañ	-1813
▁cawqh	-1814
▁pes	-1815
▁markax	-1816
▁quimsa	-1817
▁tomó	-1818
▁qhan	-1819
▁kollk	-1820
▁llak	-1821
äjj	-1822
▁paz	-1823
cientos	-1824
▁ukhamasti	-1825
jat	-1826
quién	-1827
▁qun	-1828
ataquejja	-1829
▁qhititejj	-1830
▁fuera	-1831
amani	-1832
▁juram	-1833
▁enemigos	-1834
imo	-1835
▁apt	-1836
▁khan	-1837
▁chic	-1838
fr	-1839
▁santuar	-1840
▁algu	-1841
▁bron	-1842
▁asqui	-1843
▁catuy	-1844
▁thakh	-1845
▁nayrakatap	-1846
▁ucjjarusti	-1847
edo	-1848
ont	-1849
fer	-1850
▁cumpl	-1851
▁mantañ	-1852
ni	-1853
asini	-1854
▁vien	-1855
▁frente	-1856
▁plata	-1857
▁padres	-1858
▁benjamín	-1859
▁recon	-1860
▁haya	-1861
ciones	-1862
▁unos	-1863
▁aunque	-1864
▁puerta	-1865
▁palaci	-1866
▁art	-1867
ik	-1868
▁trigo	-1869
▁urunac	-1870
▁durante	-1871
he	-1872
▁faraón	-1873
atán	-1874
arojja	-1875
▁mistun	-1876
ij	-1877
emás	-1878
äyäta	-1879
▁juan	-1880
▁cabeza	-1881
ilo	-1882
▁pay	-1883
▁efraín	-1884
käna	-1885
fic	-1886
▁llen	-1887
▁encu	-1888
sta	-1889
▁jose	-1890
amas	-1891
asim	-1892
▁sas	-1893
▁enseñ	-1894
▁fa	-1895
▁ángel	-1896
▁cuatro	-1897
ipc	-1898
▁cap	-1899
▁vuel	-1900
▁va	-1901
▁acanac	-1902
▁ucapachasti	-1903
ea	-1904
jt	-1905
▁chu	-1906
▁samuel	-1907
▁pachp	-1908
▁isaac	-1909
asipxäna	-1910
▁sepul	-1911
añataki	-1912
▁ejército	-1913
▁hicieron	-1914
▁eze	-1915
äpjj	-1916
iriw	-1917
▁ant	-1918
▁favor	-1919
▁dem	-1920
orme	-1921
▁además	-1922
quï	-1923
▁ukhama	-1924
▁nuestros	-1925
▁quem	-1926
▁phis	-1927
▁juparojj	-1928
▁coler	-1929
▁utap	-1930
aqhis	-1931
▁casti	-1932
▁reyir	-1933
entes	-1934
▁hoy	-1935
▁mucho	-1936
sal	-1937
ansa	-1938
▁alt	-1939
dios	-1940
▁campo	-1941
▁manas	-1942
▁chachasti	-1943
▁sinti	-1944
▁arro	-1945
inc	-1946
ompi	-1947
▁tron	-1948
inakax	-1949
▁tatay	-1950
▁nayraqatap	-1951
▁aceite	-1952
▁ukkhasti	-1953
▁jilïrinac	-1954
▁tucu	-1955
▁churañ	-1956
▁judíos	-1957
anacaru	-1958
▁jupaw	-1959
▁khitis	-1960
▁tienen	-1961
apxäta	-1962
▁ukkhaxa	-1963
▁fe	-1964
▁uywat	-1965
▁mujeres	-1966
arap	-1967
unca	-1968
anacampi	-1969
apjjani	-1970
ixa	-1971
▁jist	-1972
irinakax	-1973
iré	-1974
▁law	-1975
▁cunatejj	-1976
akï	-1977
dan	-1978
▁gloria	-1979
anakasti	-1980
itix	-1981
▁mej	-1982
ayas	-1983
▁hier	-1984
▁jaker	-1985
anakampi	-1986
van	-1987
▁som	-1988
▁sisqui	-1989
istu	-1990
▁tukj	-1991
▁ellas	-1992
▁encon	-1993
▁ri	-1994
äqui	-1995
elos	-1996
▁amtas	-1997
▁phuch	-1998
▁ucanaca	-1999
täna	-2000
▁entreg	-2001
jjaru	-2002
asisin	-2003
▁patak	-2004
?"	-2005
▁presencia	-2006
truy	-2007
äki	-2008
▁ham	-2009
▁jakejj	-2010
▁sacerdot	-2011
▁uñtat	-2012
▁jake	-2013
▁animales	-2014
▁quer	-2015
▁lurapjj	-2016
▁campamento	-2017
▁cad	-2018
▁musph	-2019
▁ucanacasti	-2020
rede	-2021
▁alrede	-2022
▁phes	-2023
▁sé	-2024
añana	-2025
▁urun	-2026
▁orakenac	-2027
▁cuerpo	-2028
▁toke	-2029
▁manasés	-2030
asïw	-2031
▁jacañ	-2032
▁ira	-2033
inos	-2034
▁pie	-2035
tad	-2036
jichh	-2037
▁jiwañ	-2038
asta	-2039
inas	-2040
uras	-2041
ampir	-2042
▁pueblos	-2043
▁chica	-2044
ño	-2045
ipxäna	-2046
▁den	-2047
vía	-2048
alaad	-2049
▁ovejas	-2050
▁jumanakan	-2051
ate	-2052
erán	-2053
▁sub	-2054
▁levitas	-2055
▁jesusajj	-2056
▁arca	-2057
▁apanuk	-2058
▁uqhamaraquiw	-2059
acar	-2060
▁prom	-2061
▁jupanakan	-2062
▁hall	-2063
▁hemos	-2064
cjj	-2065
fici	-2066
▁conforme	-2067
▁guerra	-2068
▁hol	-2069
▁khuyap	-2070
▁pedro	-2071
▁kusis	-2072
▁alaxpach	-2073
▁pac	-2074
▁entra	-2075
ípu	-2076
▁pil	-2077
▁qhuyap	-2078
▁saräna	-2079
▁musphar	-2080
▁incienso	-2081
ela	-2082
▁vall	-2083
▁puede	-2084
▁waran	-2085
▁awquip	-2086
▁yanapt	-2087
▁discípu	-2088
▁uqhamat	-2089
ós	-2090
aspa	-2091
üna	-2092
▁mer	-2093
▁grande	-2094
▁santuario	-2095
▁cunapachatï	-2096
▁wakich	-2097
▁aynacht	-2098
onan	-2099
umpi	-2100
▁pir	-2101
äyät	-2102
rar	-2103
▁puesto	-2104
▁dioses	-2105
▁warmip	-2106
▁hija	-2107
▁esper	-2108
▁galaad	-2109
chos	-2110
▁vesti	-2111
dom	-2112
jar	-2113
▁mío	-2114
▁jumaw	-2115
af	-2116
▁qal	-2117
▁present	-2118
aso	-2119
▁dere	-2120
▁ig	-2121
▁tucj	-2122
▁juparux	-2123
▁ucaru	-2124
▁holoca	-2125
▁jumasti	-2126
▁jumanacan	-2127
unci	-2128
▁afir	-2129
▁,	-2130
ario	-2131
añax	-2132
▁mensa	-2133
▁gan	-2134
▁digo	-2135
▁oy	-2136
▁jesucristo	-2137
erna	-2138
▁lok	-2139
▁uñst	-2140
ato	-2141
inacajj	-2142
▁markankir	-2143
edad	-2144
▁habitantes	-2145
vieron	-2146
▁kollan	-2147
▁holocaus	-2148
▁wilañch	-2149
▁markat	-2150
▁punk	-2151
▁jumanakar	-2152
pï	-2153
anta	-2154
▁salió	-2155
▁ador	-2156
▁ukaxa	-2157
▁cuanto	-2158
▁khitinak	-2159
▁lak	-2160
▁contestó	-2161
▁do	-2162
▁niñ	-2163
▁llegó	-2164
ump	-2165
▁mandó	-2166
▁sean	-2167
▁profetas	-2168
▁kunatix	-2169
▁cusis	-2170
▁alegr	-2171
ataquiw	-2172
▁real	-2173
atäpjj	-2174
▁mistu	-2175
▁alrededor	-2176
▁envió	-2177
cti	-2178
▁edom	-2179
anakat	-2180
bió	-2181
away	-2182
▁jutir	-2183
▁awkip	-2184
▁mayis	-2185
amax	-2186
▁chachajj	-2187
▁tantach	-2188
▁kawkïr	-2189
▁chuyman	-2190
▁gen	-2191
ampisti	-2192
atäs	-2193
uda	-2194
▁dé	-2195
apaw	-2196
▁cinco	-2197
▁hará	-2198
▁warank	-2199
▁hub	-2200
äp	-2201
▁mañana	-2202
gos	-2203
▁boca	-2204
▁wasar	-2205
tati	-2206
▁taken	-2207
▁sisc	-2208
katayna	-2209
▁marcajj	-2210
▁sacerdotenak	-2211
▁wayn	-2212
kta	-2213
▁lunt	-2214
caniti	-2215
▁tre	-2216
▁miedo	-2217
▁preguntó	-2218
lar	-2219
uro	-2220
kaniti	-2221
▁katunt	-2222
▁utjäna	-2223
▁jesusax	-2224
▁filisteos	-2225
▁luräwinac	-2226
smawa	-2227
ble	-2228
▁aaron	-2229
och	-2230
▁bue	-2231
▁thay	-2232
▁pablo	-2233
bra	-2234
▁qhitis	-2235
▁región	-2236
▁kal	-2237
'.	-2238
äjja	-2239
▁lí	-2240
aris	-2241
▁tras	-2242
▁acab	-2243
ece	-2244
iel	-2245
kx	-2246
▁baal	-2247
▁jalsu	-2248
▁maldad	-2249
kan	-2250
rito	-2251
apjja	-2252
▁naqh	-2253
▁diez	-2254
atarak	-2255
▁utapan	-2256
▁contigo	-2257
▁toker	-2258
▁serv	-2259
▁quims	-2260
▁jaqinakan	-2261
▁ukar	-2262
▁chiqan	-2263
▁ukapachaw	-2264
▁cir	-2265
▁nac	-2266
▁haber	-2267
akt	-2268
uta	-2269
khiti	-2270
▁carne	-2271
▁discípulos	-2272
oam	-2273
▁kutt	-2274
▁conm	-2275
▁diri	-2276
▁quit	-2277
▁herm	-2278
▁waqui	-2279
▁absal	-2280
irix	-2281
▁edi	-2282
▁nayrakat	-2283
entro	-2284
taron	-2285
▁ref	-2286
▁levit	-2287
▁reina	-2288
▁algo	-2289
asiñap	-2290
quiera	-2291
▁miser	-2292
▁sarañ	-2293
▁pecados	-2294
▁sacerdotenac	-2295
icor	-2296
oc	-2297
▁suyt	-2298
▁caball	-2299
apjjänwa	-2300
▁kims	-2301
akïnwa	-2302
▁chiqa	-2303
▁alajjpach	-2304
ves	-2305
tjja	-2306
onaca	-2307
▁nina	-2308
▁nunca	-2309
▁alguien	-2310
qhiti	-2311
▁crist	-2312
▁aynach	-2313
antay	-2314
▁consa	-2315
▁conmigo	-2316
▁anci	-2317
▁visto	-2318
atat	-2319
▁cancañ	-2320
idas	-2321
▁apay	-2322
▁khititix	-2323
▁cen	-2324
israel	-2325
ador	-2326
▁abi	-2327
▁liw	-2328
mente	-2329
▁jilïri	-2330
▁igles	-2331
lig	-2332
awqh	-2333
usin	-2334
▁acerca	-2335
inta	-2336
▁sáb	-2337
▁jilt	-2338
▁hablar	-2339
ién	-2340
illa	-2341
▁pondr	-2342
▁mul	-2343
▁familia	-2344
▁tir	-2345
▁yänac	-2346
pe	-2347
▁niya	-2348
▁cuales	-2349
▁waquich	-2350
▁regres	-2351
▁akapach	-2352
▁ark	-2353
▁cunjämtejj	-2354
jeros	-2355
imos	-2356
▁jilïrip	-2357
int	-2358
▁cheka	-2359
▁dirig	-2360
ipjjäna	-2361
▁libro	-2362
▁sutip	-2363
ior	-2364
tamente	-2365
▁palacio	-2366
▁ningún	-2367
▁sem	-2368
▁llamó	-2369
▁diosasti	-2370
quejj	-2371
▁metros	-2372
ya	-2373
apjjäta	-2374
▁davidan	-2375
cel	-2376
▁call	-2377
atpach	-2378
▁llaqu	-2379
▁vin	-2380
▁sisk	-2381
cur	-2382
▁toket	-2383
▁corder	-2384
▁khepar	-2385
▁janirak	-2386
arlo	-2387
▁inter	-2388
asipjjäna	-2389
äti	-2390
apamp	-2391
▁algunos	-2392
▁propi	-2393
▁pers	-2394
▁qhipatsti	-2395
▁pies	-2396
▁misericor	-2397
▁khitinakatix	-2398
▁sur	-2399
▁habrá	-2400
▁taypit	-2401
▁cutt	-2402
▁sina	-2403
▁uqhamasti	-2404
▁escog	-2405
▁jichhür	-2406
etu	-2407
ecto	-2408
isión	-2409
▁muertos	-2410
▁samaria	-2411
araquiniwa	-2412
▁jupanacan	-2413
truc	-2414
asina	-2415
arakiw	-2416
▁token	-2417
▁tuqin	-2418
du	-2419
▁ár	-2420
änjja	-2421
tú	-2422
kiw	-2423
▁ru	-2424
iso	-2425
▁cru	-2426
▁río	-2427
▁bronce	-2428
▁oraker	-2429
▁ezequías	-2430
▁cunsa	-2431
▁juramento	-2432
▁vio	-2433
atapat	-2434
▁babiloni	-2435
ritor	-2436
▁trono	-2437
▁jesusan	-2438
▁(	-2439
▁waranqa	-2440
atäñap	-2441
▁dan	-2442
amientos	-2443
▁waranka	-2444
lic	-2445
▁bo	-2446
itak	-2447
orte	-2448
arakïnwa	-2449
▁embargo	-2450
▁payan	-2451
▁bel	-2452
▁mejor	-2453
pon	-2454
▁maj	-2455
▁veinti	-2456
▁jeremías	-2457
▁sañ	-2458
▁ofici	-2459
▁jank	-2460
atax	-2461
▁chika	-2462
▁espad	-2463
aph	-2464
oma	-2465
acaso	-2466
▁sent	-2467
▁acapach	-2468
▁awquinac	-2469
▁sacrificios	-2470
bol	-2471
▁neces	-2472
▁grit	-2473
▁bauti	-2474
▁territor	-2475
▁jakenacan	-2476
aka	-2477
vas	-2478
▁irnaq	-2479
▁qur	-2480
▁jerob	-2481
▁utjir	-2482
▁lunthat	-2483
▁nabu	-2484
▁rob	-2485
▁encontr	-2486
▁kusisiñ	-2487
ónde	-2488
▁árbol	-2489
▁urusti	-2490
▁nayarojj	-2491
jje	-2492
äpx	-2493
▁muerto	-2494
▁ejercito	-2495
▁gal	-2496
asax	-2497
▁asa	-2498
quïnwa	-2499
▁ofrecer	-2500
▁paqallqu	-2501
▁gu	-2502
▁ajan	-2503
anacar	-2504
▁horas	-2505
▁volvió	-2506
inakan	-2507
▁tarip	-2508
cos	-2509
cias	-2510
sona	-2511
▁os	-2512
anwa	-2513
▁uva	-2514
▁cielos	-2515
tran	-2516
▁junt	-2517
▁nayat	-2518
mon	-2519
▁seis	-2520
aj	-2521
▁jakañ	-2522
▁misma	-2523
gue	-2524
▁estoy	-2525
▁habló	-2526
lla	-2527
▁soldadonak	-2528
estad	-2529
▁makh	-2530
tre	-2531
▁pros	-2532
▁fiesta	-2533
▁traba	-2534
▁puri	-2535
▁cabal	-2536
▁murió	-2537
quen	-2538
▁confi	-2539
▁tengo	-2540
▁samarañ	-2541
▁cunjämatejj	-2542
duc	-2543
▁mos	-2544
▁jeh	-2545
▁bajo	-2546
▁sasaw	-2547
▁mayor	-2548
äwa	-2549
amajj	-2550
antat	-2551
▁rebel	-2552
▁pakallko	-2553
xar	-2554
▁ele	-2555
▁quedó	-2556
para	-2557
▁will	-2558
▁luray	-2559
▁tran	-2560
▁jakenacasti	-2561
donos	-2562
▁ko	-2563
ándo	-2564
▁cier	-2565
xapxäna	-2566
▁misericordia	-2567
▁vivir	-2568
zos	-2569
▁lino	-2570
▁nayraqatan	-2571
▁cel	-2572
▁siervos	-2573
▁alto	-2574
▁walpun	-2575
nayman	-2576
sun	-2577
▁inf	-2578
▁pasa	-2579
▁hijas	-2580
▁qhipar	-2581
▁ído	-2582
ton	-2583
▁munat	-2584
▁haz	-2585
▁asiria	-2586
▁jefe	-2587
▁katun	-2588
▁entrada	-2589
▁marcaru	-2590
uría	-2591
▁med	-2592
▁ali	-2593
▁persona	-2594
▁ofrendas	-2595
▁be	-2596
▁llor	-2597
iduría	-2598
▁suman	-2599
▁yatiq	-2600
▁yatipx	-2601
▁ucqhajj	-2602
▁jaqinakar	-2603
año	-2604
▁hacen	-2605
▁qawqh	-2606
▁levantó	-2607
▁sabiduría	-2608
▁vendr	-2609
▁dicen	-2610
▁vaca	-2611
onacan	-2612
▁mankh	-2613
atäpx	-2614
▁siguiente	-2615
▁có	-2616
icio	-2617
▁kuti	-2618
apqui	-2619
▁luqtir	-2620
poder	-2621
amampi	-2622
poderoso	-2623
guna	-2624
sarañ	-2625
▁todopoderoso	-2626
▁contr	-2627
▁tuqi	-2628
apjjañapataqui	-2629
mä	-2630
▁treinta	-2631
▁israelita	-2632
▁sup	-2633
.'	-2634
▁pampach	-2635
tron	-2636
▁gaba	-2637
citos	-2638
▁josaf	-2639
▁kellk	-2640
▁cusisiñ	-2641
▁é	-2642
▁manqh	-2643
quim	-2644
▁justo	-2645
▁aguas	-2646
▁tukus	-2647
▁yatipjj	-2648
▁juz	-2649
▁pataca	-2650
asqui	-2651
incip	-2652
▁doce	-2653
▁levad	-2654
▁tromp	-2655
codonos	-2656
▁princip	-2657
codonosor	-2658
▁encuentro	-2659
▁estu	-2660
▁phax	-2661
quier	-2662
▁obra	-2663
pachansa	-2664
atjam	-2665
ankirinak	-2666
ag	-2667
aqhisiy	-2668
▁tantacht	-2669
janit	-2670
▁acon	-2671
xani	-2672
▁obede	-2673
▁nabucodonosor	-2674
▁valle	-2675
▁josafat	-2676
▁mom	-2677
▁nakh	-2678
▁ayllun	-2679
▁servid	-2680
ath	-2681
▁az	-2682
▁faris	-2683
▁morir	-2684
▁ninguna	-2685
äkiti	-2686
▁llegaron	-2687
▁awat	-2688
▁cana	-2689
▁comenzó	-2690
▁imt	-2691
▁apak	-2692
▁pacto	-2693
uj	-2694
▁podrá	-2695
apas	-2696
▁amorre	-2697
ëjja	-2698
▁perman	-2699
▁ejércitos	-2700
▁cuenta	-2701
▁propia	-2702
culo	-2703
▁wawanak	-2704
▁jaya	-2705
araquïta	-2706
esa	-2707
▁ced	-2708
▁eno	-2709
jjapjjäna	-2710
▁marcanquir	-2711
",	-2712
ampï	-2713
▁ram	-2714
▁jamach	-2715
uqt	-2716
▁urqu	-2717
▁tucus	-2718
▁piedras	-2719
▁tuqit	-2720
aparojj	-2721
▁entend	-2722
ame	-2723
dab	-2724
▁fu	-2725
▁maldi	-2726
min	-2727
uto	-2728
añäni	-2729
▁jaqinakasti	-2730
▁piedra	-2731
▁sábado	-2732
▁warminac	-2733
ah	-2734
▁jonatán	-2735
est	-2736
▁cosa	-2737
arakini	-2738
▁luräna	-2739
▁grandes	-2740
▁momento	-2741
▁pod	-2742
▁inv	-2743
▁pens	-2744
▁casas	-2745
amaw	-2746
▁nub	-2747
▁majestad	-2748
orm	-2749
▁conse	-2750
▁mistuway	-2751
▁canaán	-2752
▁qullqi	-2753
▁qunt	-2754
▁enfer	-2755
són	-2756
▁perdon	-2757
▁alegría	-2758
▁caso	-2759
▁malv	-2760
▁diosaw	-2761
▁puertas	-2762
ïta	-2763
aski	-2764
▁sime	-2765
▁cuarenta	-2766
od	-2767
▁norte	-2768
▁viene	-2769
kamaw	-2770
▁sist	-2771
ayat	-2772
aste	-2773
▁janc	-2774
▁todavía	-2775
▁agra	-2776
▁ukxarusti	-2777
quitu	-2778
ru	-2779
▁thak	-2780
▁israelitanac	-2781
ieran	-2782
pasa	-2783
▁amon	-2784
▁conver	-2785
▁territorio	-2786
▁haga	-2787
▁ucapachaw	-2788
▁qam	-2789
rán	-2790
und	-2791
▁corr	-2792
▁esaú	-2793
▁nuestra	-2794
▁cri	-2795
▁maqh	-2796
▁ukaw	-2797
▁pirq	-2798
▁antut	-2799
▁tatitut	-2800
▁ucanacjja	-2801
▁llevó	-2802
▁salieron	-2803
tur	-2804
ïra	-2805
tien	-2806
▁pel	-2807
▁cant	-2808
itan	-2809
▁apanucu	-2810
▁takpach	-2811
titud	-2812
▁eter	-2813
▁prov	-2814
▁puriy	-2815
▁tienda	-2816
aniel	-2817
▁poco	-2818
anacwa	-2819
▁tenían	-2820
▁kil	-2821
▁tayk	-2822
▁uñisirinac	-2823
▁maran	-2824
arjamaw	-2825
▁sart	-2826
▁escon	-2827
▁juy	-2828
▁jaqisti	-2829
▁primero	-2830
▁ancianos	-2831
▁quq	-2832
ipana	-2833
denado	-2834
apki	-2835
▁cómo	-2836
▁reinó	-2837
▁eliseo	-2838
▁phajj	-2839
▁quién	-2840
iz	-2841
▁def	-2842
alla	-2843
▁uqhamatwa	-2844
dar	-2845
▁sata	-2846
▁uraqinak	-2847
añamataqui	-2848
▁din	-2849
▁uñisirinak	-2850
▁oído	-2851
▁quedará	-2852
nu	-2853
una	-2854
▁alma	-2855
▁jall	-2856
▁obras	-2857
arakiwa	-2858
▁servi	-2859
asipxam	-2860
amay	-2861
uspa	-2862
▁uks	-2863
irejj	-2864
rac	-2865
▁janiraqui	-2866
▁sojj	-2867
ror	-2868
ätap	-2869
▁gad	-2870
▁utji	-2871
▁cambi	-2872
apjjaraquïna	-2873
▁tuvo	-2874
atapata	-2875
imiento	-2876
ayañ	-2877
▁mayjt	-2878
▁hambre	-2879
bl	-2880
quit	-2881
▁jaqir	-2882
▁lurapx	-2883
▁pron	-2884
▁ropa	-2885
cuenta	-2886
anacapa	-2887
▁hermana	-2888
▁parti	-2889
suy	-2890
timo	-2891
▁circun	-2892
▁qillqat	-2893
▁hu	-2894
▁aquellos	-2895
▁ukapachasti	-2896
llo	-2897
mati	-2898
▁modo	-2899
▁oír	-2900
▁hagan	-2901
▁extran	-2902
▁hierro	-2903
▁llamado	-2904
rió	-2905
arar	-2906
▁señal	-2907
▁rub	-2908
▁makhat	-2909
▁wawach	-2910
▁sión	-2911
▁muchas	-2912
▁cincuenta	-2913
▁reyinac	-2914
▁luräwinak	-2915
illas	-2916
anquiri	-2917
asiraqu	-2918
▁janïra	-2919
cómo	-2920
▁tayc	-2921
▁jesusar	-2922
▁tro	-2923
athat	-2924
▁uñtata	-2925
tate	-2926
▁jehú	-2927
▁bat	-2928
apasa	-2929
▁kont	-2930
▁gener	-2931
▁sil	-2932
▁alab	-2933
▁taqiniw	-2934
ampisa	-2935
▁sarakïna	-2936
▁aut	-2937
iones	-2938
▁tener	-2939
▁dinero	-2940
▁ordenó	-2941
azar	-2942
▁iba	-2943
▁jumarojj	-2944
kiwa	-2945
▁autor	-2946
atäniwa	-2947
uru	-2948
▁eli	-2949
▁alj	-2950
▁yuspa	-2951
▁apaq	-2952
▁pheska	-2953
▁phisqa	-2954
anti	-2955
▁daré	-2956
▁ídolos	-2957
irjam	-2958
▁aún	-2959
etido	-2960
anacsa	-2961
▁demás	-2962
▁venido	-2963
▁ucqhasti	-2964
este	-2965
▁huy	-2966
▁montañ	-2967
xta	-2968
▁uñch	-2969
▁holocausto	-2970
▁pascu	-2971
▁op	-2972
▁har	-2973
raquiw	-2974
äquiti	-2975
▁utapar	-2976
▁daniel	-2977
▁servicio	-2978
irás	-2979
onakan	-2980
▁juparusti	-2981
nas	-2982
atäqui	-2983
▁edifi	-2984
▁thaqu	-2985
▁aconte	-2986
lam	-2987
ampo	-2988
áculo	-2989
▁malo	-2990
▁perk	-2991
▁isthap	-2992
▁muyunt	-2993
▁masip	-2994
▁orake	-2995
▁iyawsañ	-2996
▁mandamientos	-2997
ipa	-2998
gado	-2999
▁cose	-3000
pasados	-3001
▁aquella	-3002
jjänwa	-3003
▁juchan	-3004
kti	-3005
igan	-3006
▁segun	-3007
▁escrito	-3008
▁warminak	-3009
atäp	-3010
▁enci	-3011
anacasa	-3012
▁maynïr	-3013
▁israelitanakax	-3014
iway	-3015
▁kok	-3016
▁antepasados	-3017
jup	-3018
tak	-3019
asasti	-3020
▁nuevo	-3021
uma	-3022
▁kay	-3023
ampoco	-3024
arutix	-3025
▁beber	-3026
▁ñanqhach	-3027
▁anunci	-3028
apxarakïna	-3029
▁jumanacarojj	-3030
▁cuid	-3031
▁ik	-3032
istati	-3033
▁galil	-3034
▁bueno	-3035
▁tabern	-3036
akiwa	-3037
▁arsu	-3038
▁wakt	-3039
▁primer	-3040
▁laykuw	-3041
arutejj	-3042
▁luratanakap	-3043
raqui	-3044
▁decía	-3045
▁apayan	-3046
▁emp	-3047
acias	-3048
▁lá	-3049
iqui	-3050
▁bala	-3051
anakaw	-3052
▁amsta	-3053
▁debajo	-3054
▁autoridad	-3055
añajj	-3056
adores	-3057
▁sagra	-3058
▁ayud	-3059
▁pusieron	-3060
chas	-3061
aruwa	-3062
tados	-3063
▁diosap	-3064
▁pid	-3065
▁yapuch	-3066
▁pasar	-3067
eri	-3068
▁sob	-3069
▁montes	-3070
▁bur	-3071
atapa	-3072
▁saber	-3073
▁gol	-3074
▁amas	-3075
ataquisti	-3076
amat	-3077
▁wañ	-3078
asipc	-3079
tañap	-3080
atänwa	-3081
▁fruto	-3082
ict	-3083
ïpjj	-3084
▁nayaru	-3085
▁hebr	-3086
cuando	-3087
▁qullunak	-3088
▁esos	-3089
▁incl	-3090
▁poses	-3091
ñapataqui	-3092
gü	-3093
▁lup	-3094
amañch	-3095
ko	-3096
▁bor	-3097
▁juti	-3098
▁chuyma	-3099
▁jez	-3100
▁lep	-3101
▁cuti	-3102
▁perf	-3103
▁catunt	-3104
anacatejj	-3105
▁nayraqat	-3106
▁anq	-3107
anías	-3108
uni	-3109
isit	-3110
▁eleazar	-3111
▁jaqun	-3112
▁luratap	-3113
▁tabernáculo	-3114
▁kull	-3115
▁kawkha	-3116
▁pascua	-3117
ataquisa	-3118
▁destruy	-3119
▁luratanacap	-3120
▁warmisti	-3121
▁viñ	-3122
▁rique	-3123
apampiw	-3124
▁discip	-3125
▁gobern	-3126
▁marcat	-3127
caquïnwa	-3128
▁jakesti	-3129
tata	-3130
▁dol	-3131
▁exp	-3132
▁churäna	-3133
▁ucanacajj	-3134
tio	-3135
icó	-3136
▁recu	-3137
▁unañ	-3138
jó	-3139
▁madi	-3140
▁nuwant	-3141
▁tampoco	-3142
onacajj	-3143
▁phuchh	-3144
▁respond	-3145
asjj	-3146
▁sede	-3147
▁ucasa	-3148
▁gracia	-3149
jes	-3150
sus	-3151
▁tel	-3152
▁canan	-3153
▁cauti	-3154
▁consid	-3155
▁dentro	-3156
xi	-3157
▁ban	-3158
amasti	-3159
▁derram	-3160
bido	-3161
▁kunsa	-3162
▁conocer	-3163
▁leví	-3164
arakta	-3165
▁awkinak	-3166
▁clan	-3167
▁liber	-3168
▁uraqir	-3169
▁fle	-3170
arlos	-3171
▁allá	-3172
aracta	-3173
▁buena	-3174
▁pla	-3175
▁thaqh	-3176
▁testimon	-3177
▁ukanakax	-3178
▁saraquïna	-3179
▁ol	-3180
asan	-3181
▁sucedió	-3182
añu	-3183
zado	-3184
▁sen	-3185
▁wact	-3186
▁oveja	-3187
hán	-3188
asiri	-3189
akhesiy	-3190
cil	-3191
▁jiwayañ	-3192
▁jeroboam	-3193
▁jumanacasti	-3194
▁afirmo	-3195
▁jaqich	-3196
ecía	-3197
▁acuer	-3198
▁phaxs	-3199
▁mismos	-3200
▁fiel	-3201
▁estar	-3202
▁veces	-3203
zías	-3204
▁harán	-3205
asipjjam	-3206
pawa	-3207
asajj	-3208
▁ucar	-3209
▁lanti	-3210
oria	-3211
▁uñtas	-3212
atakisti	-3213
▁lip	-3214
tasti	-3215
atäpan	-3216
og	-3217
▁oí	-3218
▁cara	-3219
▁puriñ	-3220
apxamti	-3221
▁gracias	-3222
▁arsus	-3223
▁luqtañ	-3224
▁sutich	-3225
ayi	-3226
gon	-3227
engu	-3228
▁egipton	-3229
▁ukhamaw	-3230
▁kollunac	-3231
▁recog	-3232
▁qhanañch	-3233
▁chuymampi	-3234
oh	-3235
kama	-3236
▁perm	-3237
▁lengu	-3238
▁quipc	-3239
▁oración	-3240
▁fur	-3241
atäki	-3242
kunatarak	-3243
▁ukampisa	-3244
▁libr	-3245
▁mica	-3246
▁niño	-3247
▁recono	-3248
▁enemigo	-3249
▁wawanacapasti	-3250
zaron	-3251
▁diosat	-3252
▁uqhamaw	-3253
▁uqhamata	-3254
ál	-3255
▁kipk	-3256
▁maraw	-3257
▁alianza	-3258
▁batalla	-3259
▁ejercit	-3260
▁fir	-3261
▁carp	-3262
▁siqu	-3263
▁tengan	-3264
▁waquis	-3265
arte	-3266
▁bra	-3267
▁acomp	-3268
▁jupamp	-3269
apjjamti	-3270
cid	-3271
anth	-3272
▁bete	-3273
▁sumank	-3274
▁trabajo	-3275
▁sinago	-3276
▁tienes	-3277
▁kamachi	-3278
▁puncu	-3279
apxta	-3280
▁calde	-3281
▁jilïrinak	-3282
endo	-3283
tamwa	-3284
▁elías	-3285
▁hebrón	-3286
▁tuy	-3287
atäjj	-3288
añapa	-3289
▁aych	-3290
▁carr	-3291
▁mayamp	-3292
▁hubo	-3293
▁entró	-3294
▁maqhat	-3295
▁senta	-3296
▁uñjir	-3297
▁camach	-3298
▁jericó	-3299
▁abim	-3300
▁tribun	-3301
▁unañch	-3302
▁warmin	-3303
▁corti	-3304
guno	-3305
▁tim	-3306
ull	-3307
▁uñs	-3308
caron	-3309
▁betel	-3310
▁jilïrinakap	-3311
▁israelitanak	-3312
▁aver	-3313
▁joás	-3314
▁llät	-3315
▁consagra	-3316
▁catun	-3317
▁estre	-3318
▁poner	-3319
▁suelo	-3320
▁nayraqatapan	-3321
inaca	-3322
▁elias	-3323
▁kilos	-3324
▁fuerte	-3325
▁ucs	-3326
▁nakt	-3327
▁acamp	-3328
▁ordenado	-3329
▁jalj	-3330
anuk	-3331
omach	-3332
▁arre	-3333
▁enter	-3334
▁peque	-3335
▁soldados	-3336
▁jupanacar	-3337
üru	-3338
▁li	-3339
able	-3340
ascäna	-3341
caspas	-3342
▁yä	-3343
isinsti	-3344
▁yuqapa	-3345
▁acompañ	-3346
▁jumanakasti	-3347
urak	-3348
▁ucansti	-3349
rón	-3350
▁dom	-3351
▁igu	-3352
▁uruw	-3353
▁qhitan	-3354
▁uñtataw	-3355
té	-3356
pre	-3357
dose	-3358
▁llevaron	-3359
jado	-3360
▁rev	-3361
▁sue	-3362
▁deben	-3363
▁uraqi	-3364
cre	-3365
▁jayp	-3366
▁reyi	-3367
apcäna	-3368
▁menos	-3369
▁maynis	-3370
ner	-3371
oru	-3372
▁sarx	-3373
▁nayrïr	-3374
ug	-3375
del	-3376
umach	-3377
apjjta	-3378
▁rubén	-3379
▁esposa	-3380
▁juicio	-3381
▁nación	-3382
▁warar	-3383
▁masinakap	-3384
rim	-3385
▁iw	-3386
▁entrar	-3387
▁waljan	-3388
bano	-3389
acama	-3390
anacat	-3391
▁pobre	-3392
▁ucjjarojj	-3393
apxañapataki	-3394
mas	-3395
via	-3396
asar	-3397
irim	-3398
pasti	-3399
▁joac	-3400
▁uñjañ	-3401
▁amar	-3402
▁munta	-3403
▁hechos	-3404
▁absalón	-3405
▁achunak	-3406
aparux	-3407
mir	-3408
▁orko	-3409
▁casar	-3410
▁engañ	-3411
▁paqallq	-3412
▁uqhamwa	-3413
asita	-3414
▁debe	-3415
aspati	-3416
▁ciertamente	-3417
▁jupampi	-3418
mar	-3419
▁ew	-3420
adad	-3421
xiwa	-3422
▁yant	-3423
▁santi	-3424
▁abrahán	-3425
▁ukanakasti	-3426
rojj	-3427
▁usut	-3428
▁repar	-3429
▁yuspagar	-3430
bos	-3431
ktati	-3432
anaksa	-3433
▁irnak	-3434
▁phajjs	-3435
esto	-3436
impiw	-3437
▁van	-3438
▁viento	-3439
▁hablado	-3440
▁isma	-3441
anacapsa	-3442
▁mandado	-3443
illt	-3444
▁bal	-3445
▁moisesasti	-3446
ikt	-3447
▁crey	-3448
anacaw	-3449
▁madera	-3450
garé	-3451
amanï	-3452
▁honor	-3453
▁dieron	-3454
▁walï	-3455
▁phust	-3456
riba	-3457
▁habita	-3458
▁marcar	-3459
▁nuwasïw	-3460
▁amón	-3461
▁comple	-3462
▁yaqhip	-3463
▁gede	-3464
▁decían	-3465
▁pueden	-3466
▁servidores	-3467
▁qar	-3468
nayax	-3469
▁destruir	-3470
iqh	-3471
▁lav	-3472
▁chekaru	-3473
jero	-3474
▁abner	-3475
▁siria	-3476
▁testimonio	-3477
asisaw	-3478
▁casta	-3479
▁warmix	-3480
▁posesión	-3481
▁wilañcha	-3482
▁cawquïritejj	-3483
upjj	-3484
▁campos	-3485
▁cierto	-3486
▁inamay	-3487
▁sepulc	-3488
quirinac	-3489
▁davidajj	-3490
▁davidasti	-3491
▁plan	-3492
▁jupat	-3493
▁suxta	-3494
▁chachat	-3495
▁jaqi	-3496
▁chikat	-3497
▁utjkiti	-3498
kay	-3499
rus	-3500
▁ocu	-3501
▁caminos	-3502
eré	-3503
▁mostr	-3504
▁llegar	-3505
pues	-3506
▁jith	-3507
▁ninguno	-3508
▁markanakan	-3509
▁viol	-3510
▁metro	-3511
anakamp	-3512
▁metron	-3513
▁oli	-3514
▁escrib	-3515
irinakasti	-3516
▁amparap	-3517
▁nanakax	-3518
▁sapxarak	-3519
caw	-3520
ëjj	-3521
osti	-3522
pero	-3523
▁laq	-3524
añuch	-3525
▁quin	-3526
▁qawqha	-3527
▁tribus	-3528
▁lugares	-3529
ares	-3530
▁asn	-3531
▁hero	-3532
▁layc	-3533
▁sull	-3534
▁comida	-3535
▁jakenaca	-3536
▁tup	-3537
tatay	-3538
▁acep	-3539
▁cent	-3540
▁dará	-3541
▁olvid	-3542
▁propio	-3543
▁kankañap	-3544
tj	-3545
äñ	-3546
▁chekan	-3547
▁josías	-3548
▁líbano	-3549
▁pronto	-3550
úm	-3551
▁prote	-3552
▁achikt	-3553
▁sojjta	-3554
▁filisteo	-3555
awj	-3556
awk	-3557
derá	-3558
▁kar	-3559
asinxa	-3560
▁parläna	-3561
▁heredad	-3562
▁jumarux	-3563
añamataki	-3564
rio	-3565
▁ismael	-3566
▁inm	-3567
▁extra	-3568
▁nuwasir	-3569
▁khanañch	-3570
▁jumanacar	-3571
ïw	-3572
así	-3573
▁mató	-3574
▁perse	-3575
catayna	-3576
▁bautis	-3577
cunapach	-3578
▁enviado	-3579
gó	-3580
atxa	-3581
onas	-3582
▁rode	-3583
▁lejos	-3584
▁llegado	-3585
▁sedequías	-3586
▁arup	-3587
▁uksti	-3588
▁tes	-3589
▁chhaq	-3590
▁sarjj	-3591
ampejja	-3592
araquïn	-3593
amsa	-3594
▁mura	-3595
▁quta	-3596
▁chhak	-3597
▁markaruw	-3598
nal	-3599
araw	-3600
▁yäq	-3601
▁davidax	-3602
▁cunjämtï	-3603
▁jiqu	-3604
▁utjquiti	-3605
▁fel	-3606
irist	-3607
▁moisesajj	-3608
!".	-3609
▁cedro	-3610
▁janïr	-3611
▁saben	-3612
▁fuerza	-3613
▁arunakap	-3614
▁kunjämatix	-3615
▁job	-3616
▁cerca	-3617
▁lepra	-3618
▁tuqir	-3619
▁salvación	-3620
ór	-3621
▁ukasa	-3622
▁ganado	-3623
▁tendrá	-3624
▁ukansti	-3625
▁discipul	-3626
▁amay	-3627
▁celeb	-3628
▁encar	-3629
▁uñkat	-3630
▁juparu	-3631
ila	-3632
▁on	-3633
apkän	-3634
anakas	-3635
▁riquezas	-3636
eci	-3637
taq	-3638
▁ank	-3639
▁enc	-3640
aqhisiñ	-3641
iraquiw	-3642
▁nayarux	-3643
aniñ	-3644
▁cub	-3645
▁mol	-3646
doque	-3647
▁alim	-3648
▁comb	-3649
▁alcan	-3650
▁derro	-3651
▁judionak	-3652
▁mardoque	-3653
▁sarapxäna	-3654
tol	-3655
onajj	-3656
señor	-3657
▁acos	-3658
▁sufr	-3659
▁yokapa	-3660
▁derecha	-3661
▁soldadonac	-3662
tura	-3663
▁aban	-3664
asx	-3665
▁ayun	-3666
▁ucatpï	-3667
▁yatiñan	-3668
▁kunayman	-3669
mawa	-3670
sasaw	-3671
ord	-3672
guen	-3673
aracwa	-3674
ños	-3675
anim	-3676
eció	-3677
▁ros	-3678
▁phiñ	-3679
anacas	-3680
▁jakenacaru	-3681
inq	-3682
tend	-3683
▁llamp	-3684
▁congre	-3685
▁iglesi	-3686
▁herodes	-3687
bá	-3688
antejj	-3689
▁carros	-3690
▁compañ	-3691
▁dejó	-3692
tatitux	-3693
asipxani	-3694
▁jupanakat	-3695
ktam	-3696
onax	-3697
▁pol	-3698
atajj	-3699
▁hice	-3700
quejja	-3701
▁simón	-3702
▁somos	-3703
anakapax	-3704
▁consider	-3705
▁jumanakarux	-3706
ink	-3707
▁damas	-3708
▁larus	-3709
anacapasti	-3710
apaq	-3711
itap	-3712
itos	-3713
antañ	-3714
▁dije	-3715
▁'¿	-3716
▁jó	-3717
ates	-3718
▁jin	-3719
akhesiñ	-3720
▁achict	-3721
▁nayrakatan	-3722
cim	-3723
ipxam	-3724
▁pani	-3725
▁seme	-3726
▁uraqinkir	-3727
arme	-3728
▁prepar	-3729
▁saraqir	-3730
▁markarux	-3731
▁wawanakam	-3732
empi	-3733
illo	-3734
▁sartas	-3735
▁ucanwa	-3736
▁lab	-3737
▁pag	-3738
▁arxat	-3739
uka	-3740
äpan	-3741
▁ido	-3742
▁quis	-3743
nayajj	-3744
▁dónde	-3745
anacapajj	-3746
▁aconteció	-3747
▁alde	-3748
▁maya	-3749
▁apnaker	-3750
apjjaraquim	-3751
▁israelitanacajj	-3752
▁zab	-3753
▁uruy	-3754
▁awkix	-3755
▁jamás	-3756
▁sutim	-3757
▁allchh	-3758
▁podrán	-3759
▁derecho	-3760
▁esperanza	-3761
▁tatituruw	-3762
▁'¡	-3763
iris	-3764
gusti	-3765
▁ucanc	-3766
ipansti	-3767
anakaruw	-3768
ïñ	-3769
iga	-3770
▁venir	-3771
▁acuerdo	-3772
▁jaqirux	-3773
▁nuestras	-3774
▁jakenacarojj	-3775
▁muni	-3776
▁angusti	-3777
▁saldr	-3778
▁ucapachajj	-3779
uqham	-3780
▁ayuda	-3781
añapatak	-3782
gal	-3783
▁perd	-3784
▁igual	-3785
▁irpsun	-3786
nón	-3787
▁damasco	-3788
▁walinac	-3789
ecen	-3790
▁joven	-3791
▁despre	-3792
▁estará	-3793
▁jesucrist	-3794
▁acanacänwa	-3795
élec	-3796
▁jikisiñ	-3797
▁nanacajj	-3798
araquituwa	-3799
▁cuntï	-3800
▁wawanacam	-3801
▁cawquïrinac	-3802
▁akanak	-3803
▁jab	-3804
▁sid	-3805
▁yur	-3806
▁carro	-3807
▁coman	-3808
▁culto	-3809
▁jutas	-3810
▁apanuc	-3811
▁kollke	-3812
▁veinte	-3813
▁nayätwa	-3814
apjjaraquini	-3815
may	-3816
▁atac	-3817
▁esté	-3818
▁jakir	-3819
llas	-3820
venes	-3821
▁wakis	-3822
aractwa	-3823
▁wasaran	-3824
dores	-3825
▁pisi	-3826
▁arjjat	-3827
▁tomaron	-3828
▁ukhamarus	-3829
eras	-3830
etos	-3831
▁sask	-3832
▁culpa	-3833
▁vista	-3834
▁deberá	-3835
▁ucaruw	-3836
▁jiwasan	-3837
▁jóvenes	-3838
▁quedado	-3839
bios	-3840
▁sép	-3841
▁arsü	-3842
▁arnak	-3843
▁phisq	-3844
▁uqhamarjama	-3845
▁gra	-3846
▁jayt	-3847
▁suer	-3848
▁multitud	-3849
▁segundo	-3850
asión	-3851
▁egipcios	-3852
▁wiñayatak	-3853
▁reyit	-3854
▁uñjta	-3855
▁mensaje	-3856
▁yupaychañ	-3857
gen	-3858
ampïs	-3859
▁guerr	-3860
▁ajayun	-3861
▁quiero	-3862
▁dirigió	-3863
▁sapxänwa	-3864
tale	-3865
▁rue	-3866
▁largo	-3867
▁nanac	-3868
▁janchip	-3869
▁khuyapt	-3870
araquïniwa	-3871
▁leon	-3872
▁llevar	-3873
añatakiw	-3874
▁cordero	-3875
▁compasión	-3876
anïñ	-3877
enas	-3878
utos	-3879
ísimo	-3880
▁aves	-3881
▁preso	-3882
▁qhapaq	-3883
▁vengan	-3884
apjjaraqui	-3885
▁sig	-3886
▁ukaruw	-3887
▁reyimpi	-3888
akim	-3889
elec	-3890
güen	-3891
ipjjam	-3892
▁ester	-3893
▁phuqhant	-3894
är	-3895
amak	-3896
erse	-3897
▁ces	-3898
▁tiro	-3899
▁aytat	-3900
▁cuttan	-3901
▁recibir	-3902
▁moisesan	-3903
▁qhuyapayasiñ	-3904
bón	-3905
▁ib	-3906
cion	-3907
▁jila	-3908
▁bende	-3909
▁estat	-3910
▁volverá	-3911
▁solamente	-3912
lon	-3913
▁lit	-3914
▁clam	-3915
▁tawa	-3916
anacjja	-3917
▁parlañ	-3918
abel	-3919
▁otras	-3920
▁refug	-3921
apxätam	-3922
▁juchanï	-3923
▁séptimo	-3924
ulo	-3925
ätajja	-3926
▁sarapjjäna	-3927
▁ja	-3928
▁mesa	-3929
apxita	-3930
acarías	-3931
▁isinac	-3932
▁congreg	-3933
▁completo	-3934
▁personas	-3935
▁sapjjänwa	-3936
orre	-3937
▁ucsa	-3938
▁uywa	-3939
▁warmejj	-3940
▁churapjj	-3941
▁moisesax	-3942
▁lot	-3943
▁umt	-3944
▁kilo	-3945
▁wawap	-3946
▁ukspachaw	-3947
acha	-3948
▁isip	-3949
▁exten	-3950
▁temor	-3951
aparjam	-3952
▁kawkhan	-3953
dal	-3954
ello	-3955
▁amtäw	-3956
trucción	-3957
▁abandon	-3958
▁janipun	-3959
▁chiqankir	-3960
men	-3961
▁conv	-3962
▁mich	-3963
▁sapjjaraquïnwa	-3964
take	-3965
▁ancho	-3966
▁comun	-3967
▁saram	-3968
▁guardia	-3969
▁cunjämatï	-3970
▁discipulonac	-3971
▁lam	-3972
▁sall	-3973
anïnwa	-3974
aquiwa	-3975
atakis	-3976
▁qamir	-3977
▁chiqat	-3978
▁isaías	-3979
▁zacarías	-3980
chañ	-3981
▁declar	-3982
▁escrit	-3983
▁apnaqir	-3984
▁goberna	-3985
tido	-3986
▁put	-3987
illos	-3988
ficado	-3989
ántate	-3990
▁qullu	-3991
▁jumampi	-3992
▁red	-3993
▁ses	-3994
▁guard	-3995
▁yatis	-3996
▁yokap	-3997
▁lengua	-3998
▁yuqall	-3999
tasinjja	-4000
▁mag	-4001
▁hora	-4002
▁tenga	-4003
▁encima	-4004
▁volvieron	-4005
▁lac	-4006
apxitu	-4007
▁arunt	-4008
▁furor	-4009
▁impuro	-4010
▁mayniw	-4011
▁galilea	-4012
▁clas	-4013
▁pati	-4014
▁qhar	-4015
isinjja	-4016
▁tatitump	-4017
▁yatiqirinak	-4018
ïsa	-4019
▁siquem	-4020
▁jiquisiñ	-4021
?'	-4022
uera	-4023
▁chacha	-4024
▁oriente	-4025
iraquïnwa	-4026
▁peda	-4027
caspati	-4028
▁llätun	-4029
▁templop	-4030
▁caballos	-4031
▁moisesar	-4032
ïpan	-4033
▁hil	-4034
▁sado	-4035
▁urux	-4036
▁qallt	-4037
▁uñcat	-4038
▁ajayup	-4039
▁jalanta	-4040
▁tendrán	-4041
lev	-4042
▁kota	-4043
▁chiqar	-4044
▁loktañ	-4045
▁reinar	-4046
▁contrario	-4047
ïpx	-4048
inado	-4049
untad	-4050
▁amán	-4051
apkänti	-4052
▁conduc	-4053
araquëjja	-4054
▁voluntad	-4055
▁jaqinakarux	-4056
ufr	-4057
cunat	-4058
▁tabl	-4059
▁vendrá	-4060
▁jeremias	-4061
anakapsa	-4062
▁oficial	-4063
▁cancañap	-4064
▁jucharar	-4065
▁ukhamaraki	-4066
tayan	-4067
▁nube	-4068
▁arnaq	-4069
▁centi	-4070
anakatix	-4071
cal	-4072
han	-4073
▁ke	-4074
▁aman	-4075
▁sacó	-4076
▁sadoc	-4077
▁ukank	-4078
▁castigo	-4079
▁escucha	-4080
▁amp	-4081
▁tur	-4082
thapiñ	-4083
▁munañap	-4084
▁uñjasini	-4085
pura	-4086
tará	-4087
▁mac	-4088
▁jath	-4089
▁pasado	-4090
▁vieron	-4091
▁levadura	-4092
ró	-4093
▁irpan	-4094
añapawa	-4095
▁pen	-4096
▁trat	-4097
▁salir	-4098
apxtaxa	-4099
kamasti	-4100
▁machaq	-4101
▁provin	-4102
▁prostitu	-4103
injam	-4104
itado	-4105
▁maynit	-4106
▁servir	-4107
▁reinado	-4108
▁árboles	-4109
▁arunacap	-4110
▁jaqinakaw	-4111
cch	-4112
asipxi	-4113
▁glori	-4114
▁ejercitop	-4115
▁marcanjja	-4116
▁bon	-4117
ïy	-4118
äwim	-4119
▁seg	-4120
▁tesor	-4121
▁utjqui	-4122
ería	-4123
▁ceb	-4124
asisa	-4125
ufrates	-4126
▁chicat	-4127
▁kollana	-4128
▁nayampi	-4129
▁azar	-4130
▁luri	-4131
▁waraw	-4132
anacana	-4133
▁satänwa	-4134
▁marcarojj	-4135
▁ucapachajja	-4136
ensil	-4137
itani	-4138
▁tata	-4139
▁wajj	-4140
▁decre	-4141
▁kunas	-4142
▁capitan	-4143
▁engendr	-4144
▁prepara	-4145
▁utensil	-4146
ego	-4147
cawqu	-4148
▁león	-4149
▁algún	-4150
▁falta	-4151
▁uñjäna	-4152
▁criston	-4153
añas	-4154
▁maes	-4155
▁quri	-4156
▁vive	-4157
▁anqäx	-4158
▁mucha	-4159
▁continu	-4160
▁fortale	-4161
▁walinak	-4162
▁jupanakarusti	-4163
enk	-4164
entan	-4165
▁aten	-4166
▁janis	-4167
▁leyes	-4168
▁subió	-4169
▁llamaba	-4170
▁oficiales	-4171
▁sirvirinac	-4172
▁cawqhantejj	-4173
▁úl	-4174
atado	-4175
▁amal	-4176
▁noti	-4177
arakim	-4178
▁clase	-4179
▁luras	-4180
apcänti	-4181
rak	-4182
ible	-4183
ecido	-4184
▁puro	-4185
▁trans	-4186
▁ajllit	-4187
▁consum	-4188
▁chuymach	-4189
▁marcanacan	-4190
▁ij	-4191
quel	-4192
umar	-4193
▁impor	-4194
▁jumaru	-4195
▁esclavo	-4196
▁mayninac	-4197
be	-4198
▁gat	-4199
▁askï	-4200
▁marav	-4201
▁polvo	-4202
▁diosaru	-4203
▁fuerzas	-4204
▁reunión	-4205
amac	-4206
▁awquejj	-4207
▁mataron	-4208
apjjaraquïnwa	-4209
sut	-4210
▁kamir	-4211
▁tawaqu	-4212
▁nayatak	-4213
▁sepulcro	-4214
▁uz	-4215
▁nef	-4216
▁belén	-4217
▁habla	-4218
▁aldeas	-4219
▁tokeru	-4220
cimiento	-4221
kis	-4222
▁procl	-4223
▁masinak	-4224
anacapjja	-4225
camaw	-4226
ierta	-4227
onasti	-4228
amppacha	-4229
▁quedaron	-4230
jay	-4231
tanwa	-4232
▁dese	-4233
▁kuns	-4234
▁orgu	-4235
cunjäm	-4236
▁perten	-4237
▁quiere	-4238
▁rostro	-4239
askäna	-4240
▁harás	-4241
▁ucsti	-4242
▁balaam	-4243
▁clanes	-4244
mi	-4245
atäx	-4246
bles	-4247
▁rel	-4248
▁jurament	-4249
▁raz	-4250
▁pist	-4251
▁nayamp	-4252
▁tatitü	-4253
▁tatitumpi	-4254
▁vas	-4255
▁punc	-4256
ankiwa	-4257
respon	-4258
▁kimsaqall	-4259
▁á	-4260
uruw	-4261
▁apos	-4262
▁walj	-4263
▁dolor	-4264
▁utensilios	-4265
▁ayt	-4266
jjani	-4267
▁lanz	-4268
▁maría	-4269
▁tomar	-4270
eran	-4271
ines	-4272
úmero	-4273
▁justos	-4274
▁sansón	-4275
▁entregó	-4276
▁ajjsarañ	-4277
▁jumanakat	-4278
▁congregación	-4279
▁terc	-4280
▁desol	-4281
▁venga	-4282
▁raquel	-4283
▁cualquier	-4284
hab	-4285
quisa	-4286
▁bondad	-4287
▁número	-4288
▁yakhep	-4289
▁tierras	-4290
▁wakicht	-4291
▁joram	-4292
▁super	-4293
▁ale	-4294
▁anti	-4295
▁asno	-4296
metros	-4297
tayäna	-4298
▁saraway	-4299
▁tenemos	-4300
▁quimsakallk	-4301
▁nov	-4302
▁jude	-4303
▁golpe	-4304
▁hebre	-4305
▁niyaw	-4306
▁profeti	-4307
▁malvados	-4308
▁muspharkañ	-4309
cip	-4310
xaru	-4311
tenta	-4312
▁becer	-4313
▁jumat	-4314
cunatsa	-4315
▁estado	-4316
▁humill	-4317
araquïwa	-4318
▁naqhantay	-4319
uste	-4320
▁env	-4321
▁oco	-4322
▁wach	-4323
antäna	-4324
▁sapür	-4325
▁avergon	-4326
▁khespiyasiñ	-4327
iquidad	-4328
▁consul	-4329
▁iniquidad	-4330
ezer	-4331
▁kollu	-4332
▁utjki	-4333
▁labios	-4334
▁maynir	-4335
bo	-4336
▁toma	-4337
▁efod	-4338
apuniwa	-4339
ataquir	-4340
▁estable	-4341
▁sacrifici	-4342
vent	-4343
▁seguir	-4344
▁valientes	-4345
uca	-4346
anit	-4347
▁atr	-4348
▁caer	-4349
▁valor	-4350
▁alguno	-4351
▁ara	-4352
▁pró	-4353
apkta	-4354
▁busc	-4355
▁evan	-4356
apuniw	-4357
▁ajllis	-4358
▁evangel	-4359
▁cualquiera	-4360
▁holocaustos	-4361
▁fina	-4362
▁sola	-4363
▁sumo	-4364
▁libre	-4365
▁constru	-4366
▁colerasiñ	-4367
▁khuyapayasiñ	-4368
▁taw	-4369
▁velo	-4370
▁extre	-4371
jumasti	-4372
▁ciento	-4373
▁kuttan	-4374
▁llegue	-4375
▁kellkat	-4376
▁propios	-4377
▁jeb	-4378
istra	-4379
▁mira	-4380
asipki	-4381
▁sueño	-4382
ha	-4383
oni	-4384
ismo	-4385
ïtawa	-4386
▁abun	-4387
▁buey	-4388
▁mays	-4389
irinakan	-4390
▁arunaca	-4391
▁go	-4392
anipx	-4393
▁bena	-4394
apisiñ	-4395
▁domin	-4396
▁jezre	-4397
▁punku	-4398
▁usted	-4399
▁cambio	-4400
▁carnero	-4401
▁sentado	-4402
▁jakerojj	-4403
nati	-4404
▁grano	-4405
▁serás	-4406
anakapar	-4407
▁descendencia	-4408
ätamti	-4409
▁carpa	-4410
añsa	-4411
talí	-4412
ciste	-4413
▁amtat	-4414
▁uraqip	-4415
goll	-4416
▁amo	-4417
▁dev	-4418
apxäma	-4419
▁bronc	-4420
▁colum	-4421
▁tawak	-4422
▁total	-4423
▁disper	-4424
▁evangelio	-4425
▁extend	-4426
araquitu	-4427
▁jaqunuk	-4428
▁mayninak	-4429
▁chachampi	-4430
inay	-4431
▁abram	-4432
▁basán	-4433
▁usuch	-4434
anakarux	-4435
kunapach	-4436
▁reyinak	-4437
▁semejan	-4438
taqi	-4439
▁bes	-4440
▁alas	-4441
▁vend	-4442
▁conce	-4443
▁imill	-4444
▁tamar	-4445
▁seguida	-4446
oán	-4447
▁ina	-4448
▁cayó	-4449
asirak	-4450
▁resto	-4451
▁wayna	-4452
▁vestido	-4453
ezca	-4454
▁invo	-4455
▁wayt	-4456
anïpjj	-4457
▁oscur	-4458
amiento	-4459
caraqui	-4460
▁isinak	-4461
▁munañan	-4462
▁ángeles	-4463
▁chekaruw	-4464
▁engendró	-4465
▁tuqinkir	-4466
▁convertir	-4467
▁ucanacaru	-4468
ico	-4469
äwin	-4470
▁estén	-4471
▁termin	-4472
▁wawanac	-4473
▁nat	-4474
unaca	-4475
▁prue	-4476
▁ukxaruw	-4477
wali	-4478
ïtap	-4479
▁joy	-4480
arios	-4481
suway	-4482
güenza	-4483
▁ukanakat	-4484
▁ún	-4485
apis	-4486
▁thuj	-4487
▁dejar	-4488
▁ukkhax	-4489
aras	-4490
ukham	-4491
▁devor	-4492
▁viven	-4493
▁guardi	-4494
▁laykux	-4495
▁ukatpï	-4496
▁jakenacaw	-4497
▁ucanacajja	-4498
▁vaya	-4499
▁patac	-4500
▁aborre	-4501
▁orakep	-4502
anakapan	-4503
▁tiempos	-4504
▁kawkhantix	-4505
xatap	-4506
anipjj	-4507
▁sallq	-4508
▁sutin	-4509
▁urojj	-4510
anakaru	-4511
▁jaquir	-4512
äwix	-4513
▁jark	-4514
▁jakañap	-4515
▁escogido	-4516
▁tatitojja	-4517
▁noé	-4518
▁ukxa	-4519
▁qinay	-4520
▁cabrit	-4521
▁alajjpachan	-4522
stru	-4523
▁tarde	-4524
▁pregun	-4525
▁cumplir	-4526
▁setenta	-4527
bal	-4528
▁gri	-4529
▁obed	-4530
▁past	-4531
▁qhir	-4532
▁sapak	-4533
▁carcel	-4534
tió	-4535
acwa	-4536
anita	-4537
irïna	-4538
apkiti	-4539
▁asquï	-4540
▁egipci	-4541
▁ruinas	-4542
▁sabios	-4543
▁neftalí	-4544
▁yatiyäna	-4545
iñap	-4546
▁patio	-4547
▁azarías	-4548
ellos	-4549
trado	-4550
▁nact	-4551
▁kallt	-4552
▁secre	-4553
▁qhuyapt	-4554
atäñapawa	-4555
ocu	-4556
uchh	-4557
▁abr	-4558
▁seré	-4559
jamawa	-4560
cjjapjj	-4561
▁morirá	-4562
▁ukanaka	-4563
▁sacerdotex	-4564
cción	-4565
▁candel	-4566
▁levita	-4567
▁tranqui	-4568
anacarojj	-4569
urux	-4570
▁llu	-4571
▁oyó	-4572
taqui	-4573
asipjje	-4574
kaspati	-4575
▁warawar	-4576
▁uñtatawa	-4577
ensa	-4578
uelo	-4579
▁elí	-4580
▁dedi	-4581
▁cunas	-4582
▁alguna	-4583
▁arriba	-4584
amaru	-4585
anakasa	-4586
▁esclav	-4587
▁apostol	-4588
▁phokhant	-4589
▁utaparuw	-4590
iram	-4591
▁bos	-4592
raron	-4593
▁sion	-4594
▁caleb	-4595
▁reyiru	-4596
▁chiqaruw	-4597
▁haciendo	-4598
kitu	-4599
▁yatiyäwi	-4600
ampiraquiw	-4601
▁oscuridad	-4602
▁ukhamarjama	-4603
▁ho	-4604
▁sip	-4605
▁vig	-4606
apana	-4607
añama	-4608
ätaxa	-4609
▁sodo	-4610
isiones	-4611
▁warmir	-4612
▁axsarañ	-4613
▁yapunak	-4614
▁reyirojj	-4615
▁av	-4616
áver	-4617
▁amasías	-4618
osos	-4619
tapa	-4620
▁ama	-4621
▁cuns	-4622
▁pien	-4623
▁elise	-4624
▁menti	-4625
▁pesar	-4626
achat	-4627
▁romp	-4628
▁hacía	-4629
▁roboam	-4630
▁uraqix	-4631
▁cadáver	-4632
▁egiptot	-4633
date	-4634
▁doy	-4635
ilgal	-4636
▁añad	-4637
▁tupt	-4638
▁centí	-4639
▁chachaw	-4640
▁jupanacaru	-4641
▁piel	-4642
▁umat	-4643
▁postr	-4644
irinaka	-4645
▁marido	-4646
▁quedarán	-4647
▁israelitanakan	-4648
dónde	-4649
▁naci	-4650
▁utan	-4651
araquis	-4652
ustedes	-4653
▁abando	-4654
▁comerán	-4655
▁wawapänwa	-4656
▁mensajeros	-4657
▁toc	-4658
emente	-4659
▁sabio	-4660
ataquis	-4661
▁ajanup	-4662
▁simeón	-4663
▁ukhamarakiw	-4664
úa	-4665
uran	-4666
zcan	-4667
▁liq	-4668
apcta	-4669
▁cubr	-4670
▁kunan	-4671
▁cebada	-4672
▁descan	-4673
▁lurask	-4674
▁sutini	-4675
▁diosaruw	-4676
▁dir	-4677
▁kamis	-4678
▁munas	-4679
▁niños	-4680
▁jumaruw	-4681
▁muralla	-4682
▁arunakax	-4683
▁chuymamp	-4684
▁semejante	-4685
▁carta	-4686
asipqui	-4687
▁cuarto	-4688
▁sodoma	-4689
▁munapjj	-4690
▁ocozías	-4691
ulón	-4692
▁atrio	-4693
▁exter	-4694
▁ampara	-4695
▁ezequi	-4696
anactejj	-4697
khitirak	-4698
▁generación	-4699
ärm	-4700
achas	-4701
▁hiti	-4702
▁vayan	-4703
▁wawax	-4704
▁nayräjj	-4705
▁wawanakapa	-4706
▁ocho	-4707
▁prój	-4708
▁adver	-4709
▁apsun	-4710
▁conocimiento	-4711
?".	-4712
ajjajj	-4713
▁descu	-4714
▁gabaón	-4715
▁trompet	-4716
▁conducta	-4717
ipca	-4718
apcän	-4719
▁phok	-4720
▁vict	-4721
▁waña	-4722
▁prójimo	-4723
▁respondieron	-4724
irin	-4725
äkas	-4726
chixa	-4727
▁tengas	-4728
▁nanacan	-4729
▁promesa	-4730
asipjjani	-4731
▁centímetros	-4732
▁uchäna	-4733
epa	-4734
zan	-4735
▁pud	-4736
▁alis	-4737
▁panes	-4738
▁yuqapax	-4739
▁esclavos	-4740
▁doscientos	-4741
▁azo	-4742
denes	-4743
▁chaw	-4744
▁elim	-4745
▁muyun	-4746
▁jawsay	-4747
▁perver	-4748
anacaruw	-4749
▁uywatap	-4750
▁déb	-4751
xänwa	-4752
árcel	-4753
▁hermos	-4754
▁vergüenza	-4755
▁fl	-4756
▁abom	-4757
▁sabe	-4758
▁balac	-4759
▁machak	-4760
▁ukkhaw	-4761
▁abundan	-4762
▁broncet	-4763
▁llakisiñ	-4764
▁ucanacan	-4765
▁luräwinakap	-4766
cay	-4767
sos	-4768
atar	-4769
orojj	-4770
▁culp	-4771
▁sema	-4772
ándose	-4773
▁honra	-4774
▁jilar	-4775
▁plant	-4776
▁contar	-4777
▁presente	-4778
mado	-4779
▁seres	-4780
órdenes	-4781
onacampi	-4782
▁khathat	-4783
▁micaías	-4784
▁angustia	-4785
idió	-4786
tiri	-4787
▁cárcel	-4788
▁farise	-4789
▁atención	-4790
▁construy	-4791
cuán	-4792
▁ger	-4793
▁urut	-4794
ontera	-4795
▁hayan	-4796
▁oídos	-4797
▁qunuñ	-4798
▁phichh	-4799
▁rescat	-4800
añatakix	-4801
▁caldeos	-4802
▁persegu	-4803
▁qhathat	-4804
▁takeniw	-4805
▁frontera	-4806
nwa	-4807
apkir	-4808
taban	-4809
▁razón	-4810
anaktix	-4811
▁asunto	-4812
▁kullak	-4813
▁pastor	-4814
▁katuntat	-4815
añapatakiw	-4816
▁oc	-4817
años	-4818
irac	-4819
apxsma	-4820
▁lurta	-4821
▁laycuw	-4822
▁quedar	-4823
▁sesenta	-4824
▁interior	-4825
kä	-4826
eto	-4827
jen	-4828
▁iban	-4829
▁pant	-4830
▁pasó	-4831
▁judío	-4832
▁uraqit	-4833
▁diosanakar	-4834
ure	-4835
▁adon	-4836
▁mayampsa	-4837
▁arunacajj	-4838
▁kamisatix	-4839
▁phuqt	-4840
▁chikaw	-4841
▁jawirat	-4842
▁zabulón	-4843
▁judionac	-4844
▁num	-4845
▁odi	-4846
▁sex	-4847
▁vid	-4848
äquis	-4849
asimti	-4850
▁malos	-4851
▁inclin	-4852
▁pondré	-4853
ñapataki	-4854
▁chekpachansa	-4855
▁actu	-4856
▁desh	-4857
aparusa	-4858
▁nayräx	-4859
▁amorreos	-4860
▁urunakan	-4861
cin	-4862
▁jiwjj	-4863
▁perfum	-4864
▁órdenes	-4865
▁entregar	-4866
▁principio	-4867
fí	-4868
xäs	-4869
▁khar	-4870
▁vivo	-4871
▁jebus	-4872
▁supay	-4873
▁vacas	-4874
▁derrib	-4875
▁llamar	-4876
.""	-4877
tante	-4878
ayapjj	-4879
▁llama	-4880
▁arsüna	-4881
▁terren	-4882
▁volverán	-4883
▁após	-4884
▁desti	-4885
▁lanza	-4886
▁profan	-4887
▁ajjsarcañ	-4888
▁jakenacar	-4889
▁sacerdotejj	-4890
día	-4891
▁ga	-4892
▁impues	-4893
▁vestid	-4894
▁faraonan	-4895
▁uñjasinsti	-4896
▁yatichäwinac	-4897
▁entendimiento	-4898
▁jani	-4899
▁arsüw	-4900
▁escap	-4901
▁lluvia	-4902
▁nanakan	-4903
eas	-4904
uso	-4905
uér	-4906
kasin	-4907
▁grup	-4908
▁llena	-4909
▁janirac	-4910
irinacajj	-4911
▁siskatayna	-4912
▁extranjeros	-4913
goci	-4914
▁mía	-4915
ecerá	-4916
tiles	-4917
▁rojo	-4918
ampiwa	-4919
anacajja	-4920
▁cosecha	-4921
▁fariseos	-4922
▁siquiera	-4923
▁usk	-4924
▁copa	-4925
▁hues	-4926
▁hadad	-4927
▁sidón	-4928
▁egipcio	-4929
eno	-4930
▁and	-4931
▁dig	-4932
▁suf	-4933
apata	-4934
eblas	-4935
▁detr	-4936
▁tini	-4937
▁maysa	-4938
▁resta	-4939
▁hierba	-4940
▁parlir	-4941
▁cayunac	-4942
▁tinieblas	-4943
▁saraquituwa	-4944
arakïta	-4945
achasisin	-4946
▁chiqapar	-4947
▁mardoqueo	-4948
erv	-4949
▁kup	-4950
▁saf	-4951
▁oprim	-4952
▁detrás	-4953
▁vivían	-4954
pachaniw	-4955
▁hubiera	-4956
▁uñstäna	-4957
▁qhispiyasiñ	-4958
undo	-4959
ankki	-4960
cäyät	-4961
▁acus	-4962
▁palm	-4963
camasti	-4964
▁alaban	-4965
▁preocu	-4966
▁sarant	-4967
▁khithäna	-4968
▁israelitanakar	-4969
'".	-4970
kawk	-4971
▁inte	-4972
▁jakt	-4973
▁matar	-4974
▁estarán	-4975
▁axsarkañ	-4976
▁herencia	-4977
▁orakenquir	-4978
iles	-4979
endió	-4980
▁pabl	-4981
▁utjn	-4982
atäcän	-4983
quipan	-4984
▁compl	-4985
▁kenay	-4986
▁bienes	-4987
▁jaytan	-4988
▁ukchañ	-4989
▁wawajj	-4990
▁consagr	-4991
▁pachpaw	-4992
jichhasti	-4993
▁cunayman	-4994
pir	-4995
▁kot	-4996
▁usc	-4997
cerán	-4998
▁estamos	-4999
ïwa	-5000
▁firme	-5001
▁natán	-5002
▁pobres	-5003
▁hiciste	-5004
ber	-5005
tón	-5006
▁phuq	-5007
▁jakon	-5008
▁mitad	-5009
▁tuqiw	-5010
▁especi	-5011
▁morada	-5012
▁visión	-5013
anacapan	-5014
▁taypina	-5015
▁jakenacasa	-5016
▁purisinsti	-5017
bas	-5018
uri	-5019
▁iz	-5020
▁pú	-5021
itäta	-5022
▁etio	-5023
▁pier	-5024
cisión	-5025
araquin	-5026
▁chhiqh	-5027
▁chiqap	-5028
▁partes	-5029
▁querub	-5030
▁sumanc	-5031
▁hablaba	-5032
▁filisteonak	-5033
íb	-5034
hanán	-5035
▁esas	-5036
▁rech	-5037
iencia	-5038
▁amalec	-5039
▁caballo	-5040
anacaparu	-5041
▁adi	-5042
▁alay	-5043
▁ello	-5044
▁ijma	-5045
▁chhuj	-5046
▁resuc	-5047
atpacha	-5048
ärmanth	-5049
▁kawkïri	-5050
▁tucupjj	-5051
▁poderoso	-5052
▁escrituras	-5053
▁kamachinak	-5054
aías	-5055
fica	-5056
xaruw	-5057
▁tunk	-5058
▁amado	-5059
▁estás	-5060
▁pueda	-5061
▁montañas	-5062
▁entregado	-5063
▁nayrakatapana	-5064
mal	-5065
amasa	-5066
tayna	-5067
atätap	-5068
▁lleno	-5069
▁jaqinaka	-5070
▁imantasiñ	-5071
añan	-5072
quip	-5073
taba	-5074
▁hago	-5075
▁inoc	-5076
▁limp	-5077
▁sirios	-5078
▁awkipänwa	-5079
xan	-5080
▁ag	-5081
iman	-5082
iristi	-5083
▁nazar	-5084
▁perdo	-5085
▁saray	-5086
▁dejado	-5087
▁jutani	-5088
apjjätam	-5089
▁ucarojj	-5090
▁cometido	-5091
▁bendición	-5092
▁saskakïnwa	-5093
eme	-5094
idel	-5095
▁siw	-5096
anidad	-5097
asinwa	-5098
▁saque	-5099
▁sinaí	-5100
äcaspas	-5101
▁proteg	-5102
▁suerte	-5103
▁jaqinakaruw	-5104
ite	-5105
anïna	-5106
jetos	-5107
▁aser	-5108
ürusti	-5109
▁ukarux	-5110
▁yokall	-5111
▁jonatan	-5112
▁confianza	-5113
äwir	-5114
▁due	-5115
▁adul	-5116
▁arus	-5117
▁coré	-5118
▁uksa	-5119
▁altos	-5120
▁chhux	-5121
▁chekap	-5122
▁tenido	-5123
▁levanta	-5124
▁refugio	-5125
aki	-5126
xarux	-5127
▁ramas	-5128
▁tercer	-5129
▁yokapänwa	-5130
icas	-5131
▁ewjj	-5132
anejja	-5133
apkäna	-5134
▁jaqiw	-5135
▁markap	-5136
▁purïna	-5137
▁chiqpach	-5138
▁familias	-5139
itar	-5140
▁blan	-5141
▁laym	-5142
▁tela	-5143
tasina	-5144
▁march	-5145
▁puedo	-5146
apjjetu	-5147
anakapat	-5148
sí	-5149
tip	-5150
▁iqu	-5151
amamp	-5152
▁quiri	-5153
▁cintur	-5154
▁permiti	-5155
cura	-5156
jjewa	-5157
▁form	-5158
▁mayt	-5159
▁provo	-5160
▁jawira	-5161
▁terror	-5162
▁achunac	-5163
▁purific	-5164
▁quieren	-5165
▁punkunak	-5166
▁abundancia	-5167
▁uñjasinjja	-5168
cä	-5169
axax	-5170
ipxi	-5171
nayaw	-5172
▁silo	-5173
apajja	-5174
▁gabaa	-5175
▁atacar	-5176
aractawa	-5177
▁iglesia	-5178
▁éufrates	-5179
anacapampi	-5180
ré	-5181
fel	-5182
▁pis	-5183
idades	-5184
▁berna	-5185
apjjeta	-5186
▁perdón	-5187
▁tuqiruw	-5188
▁tantachasïw	-5189
▁pu	-5190
tico	-5191
▁cus	-5192
▁sel	-5193
apsti	-5194
asïta	-5195
▁carm	-5196
▁diga	-5197
▁nanak	-5198
▁ruego	-5199
▁sopor	-5200
▁fueran	-5201
itï	-5202
aquir	-5203
▁inas	-5204
porque	-5205
▁barco	-5206
▁labán	-5207
▁recor	-5208
▁sutix	-5209
▁pilato	-5210
▁quipca	-5211
▁rebaño	-5212
▁utjani	-5213
▁leyinac	-5214
▁uqhamawa	-5215
▁violencia	-5216
iña	-5217
irap	-5218
anjam	-5219
▁come	-5220
▁ramá	-5221
▁amigo	-5222
▁oyeron	-5223
▁sapxäna	-5224
haz	-5225
irista	-5226
▁acord	-5227
▁buscar	-5228
▁jichha	-5229
▁primog	-5230
▁prueba	-5231
apjjaraquï	-5232
osas	-5233
quer	-5234
▁ras	-5235
iraki	-5236
nados	-5237
asajja	-5238
▁arran	-5239
▁churi	-5240
▁marcana	-5241
ima	-5242
▁er	-5243
apwa	-5244
▁alm	-5245
apxatap	-5246
▁altares	-5247
▁cuernos	-5248
▁siscäna	-5249
▁ayllunkir	-5250
▁ged	-5251
▁phar	-5252
añanak	-5253
▁conoz	-5254
▁demon	-5255
▁quiso	-5256
▁impíos	-5257
▁regoci	-5258
▁sutejj	-5259
▁tatituru	-5260
▁uraqinakap	-5261
▁jerusalenan	-5262
!,	-5263
▁cull	-5264
▁tocó	-5265
▁capit	-5266
▁cortin	-5267
▁wakisk	-5268
jjapjjänwa	-5269
▁nakhantay	-5270
▁yuqapänwa	-5271
san	-5272
▁hes	-5273
jjarojj	-5274
äkaspas	-5275
▁lurata	-5276
▁cuidado	-5277
▁janchin	-5278
▁regresó	-5279
▁marcasti	-5280
▁profecía	-5281
▁saraquiwa	-5282
pá	-5283
tense	-5284
▁ñach	-5285
▁arsuñ	-5286
▁pusin	-5287
tatitun	-5288
▁consejo	-5289
▁guerran	-5290
▁victoria	-5291
▁vinieron	-5292
anakapasti	-5293
▁diosarojj	-5294
wañ	-5295
▁baj	-5296
▁jact	-5297
kaspas	-5298
▁armas	-5299
▁estuvo	-5300
▁jakask	-5301
▁ventan	-5302
imientos	-5303
▁pedazos	-5304
▁yanapirinak	-5305
▁jas	-5306
hasta	-5307
itaya	-5308
▁anun	-5309
atäkän	-5310
▁phokt	-5311
▁queda	-5312
▁banque	-5313
▁llamkt	-5314
▁tomado	-5315
▁tokenac	-5316
▁acciones	-5317
▁conocido	-5318
▁despreci	-5319
▁ukapachaxa	-5320
adá	-5321
riñ	-5322
achj	-5323
▁tap	-5324
quïna	-5325
▁dorm	-5326
▁panq	-5327
▁forti	-5328
▁judea	-5329
▁buscan	-5330
▁jezreel	-5331
▁wawanakapax	-5332
▁cunanacatejj	-5333
sas	-5334
viv	-5335
▁lar	-5336
▁ajayu	-5337
▁apres	-5338
▁amigos	-5339
▁pablor	-5340
▁parece	-5341
▁payani	-5342
jumanakax	-5343
▁wilañchanak	-5344
▁joi	-5345
▁sef	-5346
umarap	-5347
▁menor	-5348
atjamat	-5349
▁buenas	-5350
äpjjänwa	-5351
▁chachar	-5352
▁sarxäna	-5353
▁yapunac	-5354
▁entraron	-5355
▁marcaruw	-5356
▁prometido	-5357
tum	-5358
jïsa	-5359
▁booz	-5360
▁chimp	-5361
▁salva	-5362
▁triste	-5363
▁uñjiri	-5364
ataynati	-5365
▁janïraw	-5366
▁jupanacarusti	-5367
!'	-5368
wayi	-5369
▁amst	-5370
▁anat	-5371
▁asim	-5372
▁saph	-5373
kunjäm	-5374
▁isacar	-5375
▁jacañap	-5376
▁acamparon	-5377
▁maldición	-5378
▁destrucción	-5379
akip	-5380
▁caus	-5381
▁acercó	-5382
äwinakap	-5383
▁abimélec	-5384
▁circuncisión	-5385
igas	-5386
éndo	-5387
▁rut	-5388
ancqui	-5389
▁leche	-5390
▁verán	-5391
▁amonit	-5392
▁josean	-5393
▁sipana	-5394
iraquiwa	-5395
jichhajj	-5396
▁extremo	-5397
▁utjatap	-5398
▁primogén	-5399
▁ukapacha	-5400
cunapachatejj	-5401
▁né	-5402
etes	-5403
ïtam	-5404
▁gus	-5405
▁isi	-5406
▁adel	-5407
▁jamp	-5408
▁tuyo	-5409
▁judiö	-5410
▁deberán	-5411
▁semaías	-5412
▁testigos	-5413
▁ucanacsa	-5414
sm	-5415
iph	-5416
▁gue	-5417
▁agar	-5418
▁kori	-5419
apxtam	-5420
chejja	-5421
erseba	-5422
▁corre	-5423
▁sallk	-5424
▁tramp	-5425
nayasti	-5426
▁juntos	-5427
israelit	-5428
▁benaías	-5429
▁ninampi	-5430
▁toketjja	-5431
▁taypinsti	-5432
▁israelitanacan	-5433
▁it	-5434
ariq	-5435
zados	-5436
apcama	-5437
ipcäna	-5438
uncion	-5439
▁final	-5440
▁llamct	-5441
▁funcion	-5442
aractajja	-5443
▁sucederá	-5444
▁khepatsti	-5445
▁aum	-5446
▁ases	-5447
▁pozo	-5448
▁qhuru	-5449
▁siendo	-5450
▁kullaka	-5451
▁llevado	-5452
levántate	-5453
▁asimismo	-5454
▁corderos	-5455
ayä	-5456
cor	-5457
bros	-5458
tivo	-5459
käyät	-5460
amarux	-5461
apxpan	-5462
▁bases	-5463
xapxani	-5464
▁camachi	-5465
▁saraqui	-5466
▁uñjasax	-5467
▁markasti	-5468
▁montañosa	-5469
uros	-5470
ïtwa	-5471
▁via	-5472
ahora	-5473
▁llij	-5474
▁cargo	-5475
▁khoru	-5476
▁subir	-5477
quirist	-5478
▁brazos	-5479
▁gritos	-5480
▁sabemos	-5481
▁destruido	-5482
▁sacerdoter	-5483
),	-5484
zada	-5485
pajja	-5486
íamos	-5487
▁apas	-5488
▁apjj	-5489
▁cien	-5490
isipjj	-5491
▁camin	-5492
▁mando	-5493
▁llakis	-5494
▁sirviñ	-5495
gará	-5496
käta	-5497
anzas	-5498
▁deci	-5499
▁ankäjj	-5500
▁edific	-5501
▁encuen	-5502
▁ayllunk	-5503
▁nayaruw	-5504
▁chhaqtay	-5505
jjaraquini	-5506
▁jupanakaw	-5507
▁llaquisiñ	-5508
bar	-5509
▁""	-5510
itaw	-5511
▁zeb	-5512
▁piso	-5513
tanjja	-5514
▁sista	-5515
▁criado	-5516
▁saldrá	-5517
▁samart	-5518
▁askinak	-5519
▁jumanacaru	-5520
▁ukchañkamasti	-5521
ácti	-5522
▁bro	-5523
cidos	-5524
▁jals	-5525
▁muyt	-5526
▁roca	-5527
▁aflig	-5528
▁desnu	-5529
▁jutasin	-5530
▁morirán	-5531
irinacasti	-5532
▁campament	-5533
▁jaqinakat	-5534
▁juchanacap	-5535
kip	-5536
cuna	-5537
▁inj	-5538
ayasir	-5539
▁sabes	-5540
araquïy	-5541
▁salvar	-5542
▁vendrán	-5543
▁abimelec	-5544
▁habiendo	-5545
▁ukapachax	-5546
▁vestiduras	-5547
cía	-5548
eca	-5549
itó	-5550
ukt	-5551
▁alw	-5552
▁kon	-5553
asisk	-5554
enden	-5555
▁cama	-5556
asitap	-5557
añampi	-5558
▁amtañ	-5559
▁persi	-5560
▁sustj	-5561
achasiñ	-5562
ampiruw	-5563
▁chiqaw	-5564
▁salido	-5565
▁centime	-5566
▁chekana	-5567
▁taypinjja	-5568
emb	-5569
▁"'	-5570
naya	-5571
äcän	-5572
▁cob	-5573
racwa	-5574
▁aflic	-5575
▁litro	-5576
▁siski	-5577
▁aparte	-5578
▁planes	-5579
▁reyimp	-5580
▁sallqj	-5581
▁vuelto	-5582
▁reyirux	-5583
▁saraquim	-5584
acam	-5585
▁deja	-5586
▁gozo	-5587
▁jawq	-5588
▁luch	-5589
▁jayar	-5590
▁eterna	-5591
▁prácti	-5592
▁santos	-5593
▁kayunak	-5594
▁malvado	-5595
▁mayampi	-5596
▁yuqapaw	-5597
▁qalltäna	-5598
▁qallunak	-5599
cir	-5600
uqh	-5601
yati	-5602
▁volv	-5603
▁ukaru	-5604
▁huesos	-5605
▁templon	-5606
▁tuvieron	-5607
▁sor	-5608
gados	-5609
rados	-5610
riñch	-5611
▁usur	-5612
▁cesar	-5613
▁necio	-5614
▁willj	-5615
▁arroyo	-5616
▁faraon	-5617
▁nombres	-5618
▁resplan	-5619
▁sarakip	-5620
▁hici	-5621
▁reyï	-5622
▁responder	-5623
▁jakenacampi	-5624
bia	-5625
axan	-5626
▁arco	-5627
▁cruz	-5628
▁muro	-5629
▁direc	-5630
▁flech	-5631
▁utach	-5632
▁gedeón	-5633
iraquïna	-5634
▁enfermo	-5635
▁fuertes	-5636
▁ucanjja	-5637
▁jaytaway	-5638
▁fortaleza	-5639
▁preguntaron	-5640
iqip	-5641
äñap	-5642
▁apo	-5643
▁dep	-5644
uesta	-5645
▁mari	-5646
▁négue	-5647
▁antigu	-5648
▁eterno	-5649
idelidad	-5650
▁chhujll	-5651
▁phisqan	-5652
▁proclam	-5653
▁sarakim	-5654
▁testigo	-5655
▁cananeos	-5656
▁laycusti	-5657
bor	-5658
eda	-5659
tani	-5660
▁raí	-5661
ctati	-5662
ämawa	-5663
▁asaf	-5664
▁juez	-5665
▁miel	-5666
▁tump	-5667
▁johanán	-5668
▁consagrado	-5669
▁moisesarojj	-5670
▁:	-5671
quïs	-5672
▁ber	-5673
▁sed	-5674
▁arras	-5675
▁dirán	-5676
▁ucqha	-5677
▁jumamp	-5678
▁egiptor	-5679
▁chhaktay	-5680
▁lurapxäna	-5681
▁jerusalenar	-5682
▁hig	-5683
▁irá	-5684
▁barca	-5685
▁chhij	-5686
▁nubes	-5687
▁palom	-5688
irinakar	-5689
▁apnaqañ	-5690
▁awkipan	-5691
▁jacobon	-5692
▁orakena	-5693
▁quiriat	-5694
▁waljaniw	-5695
▁sarakituwa	-5696
▁principales	-5697
▁wiñayataqui	-5698
asca	-5699
▁ple	-5700
▁canti	-5701
▁munqui	-5702
▁mantäna	-5703
▁apnaqäna	-5704
▁marcanaca	-5705
▁propiedad	-5706
▁ucanacatjja	-5707
mpi	-5708
acti	-5709
▁indi	-5710
▁vean	-5711
▁yapu	-5712
▁sober	-5713
▁vamos	-5714
amampiw	-5715
▁compar	-5716
▁frutos	-5717
▁oraket	-5718
▁sabrán	-5719
▁lurayäna	-5720
▁sepultur	-5721
▁chacharojj	-5722
▁jesusarojj	-5723
▁levantaron	-5724
xam	-5725
antir	-5726
jumax	-5727
▁urías	-5728
▁apoder	-5729
▁gilgal	-5730
▁isimpi	-5731
▁objetos	-5732
▁ukanakan	-5733
▁trescientos	-5734
▁yatichäwinak	-5735
dras	-5736
zael	-5737
▁ung	-5738
▁amnón	-5739
▁diles	-5740
▁haces	-5741
▁podía	-5742
apataqui	-5743
▁noticia	-5744
apjjtajja	-5745
▁encontró	-5746
▁centimetron	-5747
▁nayataquejj	-5748
▁chiqpachansa	-5749
ben	-5750
▁corn	-5751
▁daño	-5752
qhitis	-5753
▁incen	-5754
anakapas	-5755
▁estando	-5756
▁quemada	-5757
▁ayllunak	-5758
▁decretos	-5759
zca	-5760
eres	-5761
▁bot	-5762
▁uvas	-5763
▁felip	-5764
▁predi	-5765
apquiti	-5766
▁luqtat	-5767
▁enferme	-5768
▁orakejj	-5769
▁orakeru	-5770
apxarakim	-5771
▁uqhamaru	-5772
▁levaduran	-5773
▁gobernador	-5774
uct	-5775
alel	-5776
▁lla	-5777
ancia	-5778
quist	-5779
▁jefté	-5780
▁oblig	-5781
▁signi	-5782
▁produc	-5783
▁vienen	-5784
anacapasa	-5785
▁sarnaker	-5786
xay	-5787
▁exam	-5788
▁ocas	-5789
▁contam	-5790
▁escond	-5791
▁quillt	-5792
apjjatap	-5793
▁cabrito	-5794
▁saraqat	-5795
▁extendió	-5796
▁extranjero	-5797
▁jilatanaka	-5798
▁markanakar	-5799
eso	-5800
rey	-5801
arles	-5802
terio	-5803
▁tama	-5804
endito	-5805
▁jaqit	-5806
▁prend	-5807
▁esdras	-5808
▁traído	-5809
▁inciens	-5810
▁enfermedad	-5811
ica	-5812
cäta	-5813
onaka	-5814
▁cuch	-5815
▁thaq	-5816
▁juyqh	-5817
▁killt	-5818
▁media	-5819
▁qurit	-5820
▁vivan	-5821
▁pedros	-5822
▁reposo	-5823
amataqui	-5824
▁joseasti	-5825
trucciones	-5826
▁jilatanaca	-5827
▁jiwarayäna	-5828
akam	-5829
mpiw	-5830
ables	-5831
▁jakë	-5832
atapun	-5833
ipxani	-5834
▁sentó	-5835
▁tocar	-5836
jjapjje	-5837
▁gobier	-5838
▁munäna	-5839
▁terreno	-5840
▁profetax	-5841
araquïnjja	-5842
▁tatiturojj	-5843
▁sapxarakïnwa	-5844
▁mani	-5845
▁qhur	-5846
▁juykh	-5847
▁recomp	-5848
▁allchhip	-5849
▁primeros	-5850
▁acercaron	-5851
asiy	-5852
▁lik	-5853
▁ves	-5854
kaspa	-5855
ämati	-5856
▁adiv	-5857
▁qurp	-5858
apjjet	-5859
▁nueva	-5860
apxänwa	-5861
▁multip	-5862
▁wawapa	-5863
▁dejaron	-5864
▁tercera	-5865
▁pastores	-5866
▁necesario	-5867
com	-5868
ikh	-5869
▁dirá	-5870
▁uscu	-5871
▁jinch	-5872
▁visit	-5873
▁harina	-5874
▁cantidad	-5875
▁cautivos	-5876
art	-5877
cinco	-5878
ficar	-5879
▁crón	-5880
▁ladr	-5881
pansti	-5882
▁saykat	-5883
▁hacerlo	-5884
jut	-5885
erás	-5886
▁imag	-5887
▁lámp	-5888
▁busca	-5889
▁pedir	-5890
▁ramot	-5891
▁revel	-5892
▁viuda	-5893
atatsti	-5894
▁cullac	-5895
▁jithiq	-5896
▁trabaj	-5897
▁yaqhach	-5898
aparjamaw	-5899
▁pedrosti	-5900
▁gobernantes	-5901
▁markankirinak	-5902
jjam	-5903
ampita	-5904
▁censo	-5905
▁expul	-5906
▁wawan	-5907
▁pondrá	-5908
▁tomará	-5909
▁señales	-5910
▁apthapis	-5911
▁fortific	-5912
asipjjamti	-5913
▁id	-5914
ezas	-5915
inuk	-5916
orra	-5917
▁qut	-5918
▁daba	-5919
▁puris	-5920
▁thujr	-5921
▁torre	-5922
atakisa	-5923
▁conden	-5924
▁pongan	-5925
▁tunkan	-5926
asipcäna	-5927
irakïnwa	-5928
▁asquich	-5929
apkatayna	-5930
▁jaketejj	-5931
▁respecto	-5932
▁sarnaqir	-5933
irinakarux	-5934
▁chachanak	-5935
emí	-5936
▁afr	-5937
▁ñic	-5938
dense	-5939
▁satä	-5940
▁arsup	-5941
apansti	-5942
▁arsuta	-5943
▁janitix	-5944
▁mananti	-5945
aruraquiw	-5946
asipxamti	-5947
▁cawqhanc	-5948
▁orakenjja	-5949
▁kimsaqallqu	-5950
nayan	-5951
quista	-5952
apatjja	-5953
▁toketa	-5954
jjarusti	-5955
▁preparado	-5956
▁uqhamarus	-5957
▁querubines	-5958
ïp	-5959
ïqui	-5960
▁fun	-5961
▁rom	-5962
toles	-5963
▁anda	-5964
▁aseg	-5965
▁ucaw	-5966
▁asuer	-5967
▁judas	-5968
▁jutañ	-5969
▁khepa	-5970
▁janitejj	-5971
▁profetan	-5972
añataquejja	-5973
taré	-5974
▁neg	-5975
▁isin	-5976
▁pagar	-5977
▁único	-5978
▁sartay	-5979
▁tukupx	-5980
▁nanakar	-5981
▁sascaquïnwa	-5982
apjjañamataqui	-5983
äc	-5984
▁vo	-5985
▁goz	-5986
▁uqh	-5987
caspa	-5988
tarán	-5989
stante	-5990
▁alkat	-5991
▁hagas	-5992
▁mayan	-5993
▁sirio	-5994
▁vivía	-5995
▁yatip	-5996
▁becerro	-5997
▁murieron	-5998
▁puncunac	-5999
▁tatitutak	-6000
▁instrucciones	-6001
ici	-6002
jeto	-6003
▁mah	-6004
ieras	-6005
▁apoy	-6006
▁ucwa	-6007
irusti	-6008
▁vivió	-6009
▁desper	-6010
▁khitin	-6011
▁lurqui	-6012
▁mayïna	-6013
▁hallado	-6014
▁prosper	-6015
▁tendrás	-6016
ispa	-6017
medi	-6018
▁vec	-6019
▁zor	-6020
smati	-6021
▁anch	-6022
▁mull	-6023
▁sela	-6024
▁abajo	-6025
▁enojo	-6026
▁quitó	-6027
atakixa	-6028
▁camell	-6029
▁inform	-6030
▁jalant	-6031
atapatsti	-6032
▁veinticinco	-6033
alo	-6034
atos	-6035
teros	-6036
äwejj	-6037
▁iqui	-6038
▁suyo	-6039
▁desgr	-6040
▁sipit	-6041
▁wasit	-6042
quitejj	-6043
▁chawll	-6044
▁comand	-6045
▁consol	-6046
▁rechaz	-6047
jjapjjam	-6048
tatitojj	-6049
▁mayisit	-6050
▁utjnuqt	-6051
▁abominac	-6052
▁maynitix	-6053
▁vestidos	-6054
jjaraquïna	-6055
▁apóstoles	-6056
▁gom	-6057
▁burl	-6058
▁dueño	-6059
▁meses	-6060
▁traer	-6061
▁yuqap	-6062
▁abiatar	-6063
▁flechas	-6064
▁yatisin	-6065
▁crónicas	-6066
▁reunieron	-6067
irt	-6068
▁yu	-6069
apxa	-6070
asma	-6071
caña	-6072
cäti	-6073
▁púr	-6074
amjja	-6075
▁laban	-6076
▁repos	-6077
▁utjay	-6078
▁askich	-6079
▁corona	-6080
▁hebreo	-6081
▁loktas	-6082
▁púrpura	-6083
▁correspon	-6084
▁comenzaron	-6085
arle	-6086
▁dob	-6087
utjja	-6088
▁capa	-6089
▁ríos	-6090
▁anoch	-6091
▁qhisp	-6092
apanjja	-6093
▁siguió	-6094
▁echaron	-6095
▁apareció	-6096
▁wawanacapajj	-6097
▁cue	-6098
▁chin	-6099
▁urup	-6100
akamaw	-6101
▁andar	-6102
▁espar	-6103
▁jariq	-6104
▁warmi	-6105
▁cuello	-6106
▁néguev	-6107
▁practi	-6108
▁jacobun	-6109
▁maynïri	-6110
▁sagradas	-6111
anakapampi	-6112
▁salomonan	-6113
ibu	-6114
▁em	-6115
ascta	-6116
atías	-6117
▁rico	-6118
▁brazo	-6119
▁jakew	-6120
▁jicjj	-6121
▁mayit	-6122
▁pagan	-6123
▁satan	-6124
kunatsa	-6125
asiraqui	-6126
▁kalltäna	-6127
▁katuntas	-6128
▁ñankhach	-6129
▁muspharcañ	-6130
▁sacrificionac	-6131
taya	-6132
▁pele	-6133
▁ukür	-6134
apkäta	-6135
▁abrió	-6136
▁carre	-6137
▁comet	-6138
▁pecho	-6139
▁chicaw	-6140
▁conoce	-6141
▁madián	-6142
▁pataka	-6143
▁tablas	-6144
▁defecto	-6145
▁desapar	-6146
▁camellos	-6147
▁tribunac	-6148
apxarakïta	-6149
▁wasitatwa	-6150
ju	-6151
ekh	-6152
irse	-6153
nada	-6154
▁jun	-6155
▁rod	-6156
atäni	-6157
▁pank	-6158
dición	-6159
▁abisa	-6160
▁qhirw	-6161
anacata	-6162
▁habría	-6163
▁arsuway	-6164
▁jiwañap	-6165
▁sapxsma	-6166
▁tatitus	-6167
▁alabanza	-6168
▁banquete	-6169
▁reconcil	-6170
ïsk	-6171
jani	-6172
▁vie	-6173
tales	-6174
▁elam	-6175
▁tuku	-6176
achach	-6177
▁arrep	-6178
▁tucuñ	-6179
▁cometi	-6180
▁sombra	-6181
▁vientre	-6182
▁estrellas	-6183
imti	-6184
sión	-6185
▁hem	-6186
kamax	-6187
▁jiwx	-6188
▁carga	-6189
▁korit	-6190
▁noemí	-6191
jichhax	-6192
▁calles	-6193
▁dejará	-6194
▁humano	-6195
istrados	-6196
▁jiwayir	-6197
▁anochecer	-6198
▁comunidad	-6199
▁juramentompi	-6200
gué	-6201
sado	-6202
▁veg	-6203
ipjje	-6204
▁despo	-6205
▁humil	-6206
▁medit	-6207
▁tembl	-6208
▁caerán	-6209
▁cristor	-6210
▁tesoros	-6211
▁yokapajj	-6212
▁sacrificiot	-6213
acho	-6214
alwa	-6215
istió	-6216
▁ocul	-6217
▁pued	-6218
tamjja	-6219
▁digan	-6220
▁olivo	-6221
▁pirqa	-6222
▁chhekh	-6223
▁diosapa	-6224
▁chuymani	-6225
▁llevaban	-6226
▁parientes	-6227
▁chuymampiw	-6228
▁primogénito	-6229
apï	-6230
käti	-6231
▁ahab	-6232
▁jawk	-6233
▁luna	-6234
▁seas	-6235
irinaca	-6236
tasinsti	-6237
▁secreto	-6238
▁adelante	-6239
▁trompeta	-6240
▁uqhamajj	-6241
far	-6242
pos	-6243
ampin	-6244
▁echó	-6245
▁edad	-6246
▁utar	-6247
apksma	-6248
askani	-6249
jjaruw	-6250
▁caden	-6251
▁lamar	-6252
▁resul	-6253
▁salud	-6254
▁ucata	-6255
▁churir	-6256
▁jakeru	-6257
ajjataqui	-6258
▁thakhinjam	-6259
▁nayrakatajj	-6260
egos	-6261
▁ayr	-6262
boset	-6263
upxam	-6264
▁firm	-6265
▁pura	-6266
▁semb	-6267
amaruw	-6268
▁panin	-6269
▁uruwa	-6270
▁judiöp	-6271
▁wawanï	-6272
▁ukxarux	-6273
▁diosamax	-6274
▁escuchar	-6275
▁inocente	-6276
▁phichhant	-6277
).	-6278
▁uv	-6279
cerá	-6280
eces	-6281
ekep	-6282
jach	-6283
änxa	-6284
▁ñik	-6285
▁abel	-6286
▁pilat	-6287
▁prove	-6288
▁lurani	-6289
asipxäta	-6290
▁kusisiy	-6291
▁culpable	-6292
▁nuwasïwin	-6293
▁yanapirip	-6294
▁miz	-6295
▁sos	-6296
▁cere	-6297
▁vest	-6298
asïnwa	-6299
atapsa	-6300
tiende	-6301
▁creen	-6302
▁occid	-6303
▁bendic	-6304
▁janiwa	-6305
aparjama	-6306
▁uywanak	-6307
▁libertad	-6308
▁cuatrocientos	-6309
cr	-6310
fe	-6311
axw	-6312
cojja	-6313
▁asqu	-6314
▁eleg	-6315
▁sien	-6316
itados	-6317
▁horno	-6318
▁apartó	-6319
▁intelig	-6320
▁yakhach	-6321
atapatjja	-6322
▁ninampiw	-6323
▁chekanquir	-6324
▁fui	-6325
akama	-6326
ampwa	-6327
estas	-6328
inaka	-6329
jumajj	-6330
▁dirás	-6331
▁muera	-6332
▁cuándo	-6333
▁vegeta	-6334
▁primera	-6335
▁urunjja	-6336
▁maravillas	-6337
▁ucanacampi	-6338
▁jesucriston	-6339
▁luratanacam	-6340
eles	-6341
itay	-6342
▁yaw	-6343
kxapx	-6344
ätasa	-6345
▁nilo	-6346
▁trig	-6347
ascani	-6348
endido	-6349
▁oeste	-6350
▁mayach	-6351
▁wastat	-6352
▁orgullo	-6353
▁munañanï	-6354
▁jaqinakampi	-6355
gón	-6356
tim	-6357
alos	-6358
▁hai	-6359
▁asom	-6360
▁esqu	-6361
▁kala	-6362
▁manto	-6363
▁sepan	-6364
▁utjkx	-6365
▁persia	-6366
▁thakhi	-6367
▁utjcjj	-6368
▁chuymap	-6369
▁quieres	-6370
▁warmimp	-6371
▁yänakap	-6372
▁columnas	-6373
apxarakini	-6374
▁enseñanza	-6375
▁tokenquir	-6376
▁caballonak	-6377
▁moisesampi	-6378
▁nayraqatax	-6379
▁funcionarios	-6380
äkän	-6381
alías	-6382
ïnjja	-6383
▁plat	-6384
▁estan	-6385
▁hiram	-6386
▁maced	-6387
▁malas	-6388
▁arsutap	-6389
▁pequeño	-6390
sab	-6391
atir	-6392
▁apx	-6393
▁awtj	-6394
▁mala	-6395
▁saci	-6396
▁serp	-6397
contes	-6398
▁axtas	-6399
▁churä	-6400
▁limpi	-6401
▁lleva	-6402
▁nueve	-6403
amppach	-6404
▁awquim	-6405
▁guarda	-6406
▁jithek	-6407
▁dispues	-6408
▁juparuw	-6409
▁maynejj	-6410
▁mentira	-6411
▁uñjapjj	-6412
▁cereales	-6413
▁recibido	-6414
▁superior	-6415
rá	-6416
▁div	-6417
▁aram	-6418
▁decl	-6419
▁khit	-6420
▁quede	-6421
uchunak	-6422
▁reinos	-6423
▁usuchj	-6424
inacasti	-6425
▁llevará	-6426
▁tokeruw	-6427
▁ucarusti	-6428
jumanacajj	-6429
▁jumanacat	-6430
▁jakenacaruw	-6431
ne	-6432
ïx	-6433
alal	-6434
tasa	-6435
ampit	-6436
chini	-6437
vidad	-6438
▁viva	-6439
▁escri	-6440
▁wasara	-6441
▁jeroboán	-6442
▁akapachan	-6443
▁akatjamat	-6444
▁amtäwinac	-6445
atäñapataqui	-6446
▁jumanakatix	-6447
ayir	-6448
éramos	-6449
▁wachuq	-6450
▁maestros	-6451
▁ovejanak	-6452
▁uñjasïna	-6453
if	-6454
mun	-6455
▁aq	-6456
baal	-6457
▁cabo	-6458
athati	-6459
yatich	-6460
▁instr	-6461
▁luqtas	-6462
▁motivo	-6463
▁thaqui	-6464
▁sobreviv	-6465
▁sumancañ	-6466
ataquiraqui	-6467
▁abandonado	-6468
▁mandamiento	-6469
äyä	-6470
ajjw	-6471
oral	-6472
▁wax	-6473
▁alta	-6474
▁higo	-6475
▁arroj	-6476
▁recto	-6477
▁venía	-6478
▁luräta	-6479
▁objeto	-6480
▁templor	-6481
▁comieron	-6482
▁maranïnwa	-6483
▁reconcili	-6484
▁siguieron	-6485
▁sacerdotenakan	-6486
ast	-6487
ision	-6488
istin	-6489
ompiw	-6490
▁yugo	-6491
achasin	-6492
▁maquir	-6493
▁qhipat	-6494
▁repren	-6495
▁presentó	-6496
ayañataqui	-6497
▁aceitempi	-6498
▁jesusarux	-6499
▁luratanakam	-6500
edi	-6501
nuk	-6502
itpan	-6503
apkani	-6504
istani	-6505
äyätam	-6506
▁mente	-6507
▁toque	-6508
atamata	-6509
pachawa	-6510
▁distin	-6511
▁mandato	-6512
▁nazaret	-6513
▁restaur	-6514
▁diosajja	-6515
▁escuchen	-6516
▁ucanacwa	-6517
▁jupanakamp	-6518
gres	-6519
▁fer	-6520
▁jard	-6521
▁asnos	-6522
▁ewjja	-6523
aracpan	-6524
quierda	-6525
▁reunió	-6526
▁vivirá	-6527
▁sapakat	-6528
▁awquipan	-6529
▁carneros	-6530
▁catuntas	-6531
▁juchanak	-6532
▁davidampi	-6533
▁izquierda	-6534
▁ucanacaraqui	-6535
udas	-6536
▁mel	-6537
▁tum	-6538
▁ajab	-6539
▁perp	-6540
▁sexu	-6541
▁tend	-6542
▁asera	-6543
▁impío	-6544
▁sacar	-6545
▁afirma	-6546
▁buenos	-6547
▁dester	-6548
▁merari	-6549
▁parlat	-6550
▁complet	-6551
▁instrum	-6552
▁llevaba	-6553
▁ucqhawa	-6554
▁altísimo	-6555
▁sirvirim	-6556
▁alimentos	-6557
▁nayatakix	-6558
bró	-6559
dós	-6560
has	-6561
itud	-6562
onia	-6563
▁cla	-6564
irojj	-6565
▁actú	-6566
▁avan	-6567
▁nuwj	-6568
▁saqu	-6569
▁dejen	-6570
▁mesul	-6571
▁sumwa	-6572
▁chhojj	-6573
▁recibe	-6574
▁nayrïri	-6575
▁volveré	-6576
▁castigar	-6577
asiraquïna	-6578
▁veintidós	-6579
▁babiloniankir	-6580
eke	-6581
▁bil	-6582
▁ner	-6583
ayasa	-6584
nadab	-6585
▁expi	-6586
▁usun	-6587
▁uñjc	-6588
▁apsus	-6589
▁santa	-6590
▁conven	-6591
apunïnwa	-6592
▁amonitas	-6593
▁carronak	-6594
añchatäpan	-6595
▁ejerciton	-6596
añajjataqui	-6597
llos	-6598
▁cán	-6599
asiña	-6600
estra	-6601
karak	-6602
obabel	-6603
▁arcap	-6604
▁espal	-6605
▁etiop	-6606
▁munap	-6607
▁pampa	-6608
▁proce	-6609
amarojj	-6610
▁quedan	-6611
▁lawanak	-6612
▁profetajj	-6613
▁awquipänwa	-6614
▁ucanacarojj	-6615
irió	-6616
kuna	-6617
pajj	-6618
▁kip	-6619
unjat	-6620
▁atar	-6621
▁espl	-6622
▁salu	-6623
▁vara	-6624
istawa	-6625
äyätwa	-6626
▁fiest	-6627
▁forma	-6628
▁masim	-6629
▁bueyes	-6630
▁bendijo	-6631
▁candelab	-6632
▁purinïna	-6633
araquïtawa	-6634
sis	-6635
onar	-6636
añjam	-6637
▁filo	-6638
▁toct	-6639
▁alcat	-6640
▁caiga	-6641
▁contó	-6642
▁kutiw	-6643
▁munki	-6644
▁cosech	-6645
▁imagen	-6646
▁maynix	-6647
▁quería	-6648
apxätati	-6649
▁uñjasin	-6650
▁chacharu	-6651
▁laycojja	-6652
▁markapar	-6653
▁aflicción	-6654
▁chacharuw	-6655
▁desgracia	-6656
▁tatiturux	-6657
▁ucspachaw	-6658
▁compañeros	-6659
?,	-6660
ipki	-6661
▁iré	-6662
ätapa	-6663
▁escr	-6664
▁sarac	-6665
usinjja	-6666
▁panqar	-6667
▁agradab	-6668
▁altaran	-6669
▁huyeron	-6670
▁puestos	-6671
▁interpre	-6672
▁ucarojja	-6673
▁descendió	-6674
▁jupanacat	-6675
▁ren	-6676
aquín	-6677
gamos	-6678
vayan	-6679
▁envid	-6680
▁mejores	-6681
jjapjjani	-6682
▁apanukut	-6683
▁cumplido	-6684
▁amparapat	-6685
▁maynitejj	-6686
sé	-6687
sna	-6688
▁lat	-6689
xapxi	-6690
▁cuán	-6691
▁iwxt	-6692
apcani	-6693
▁astar	-6694
▁separ	-6695
quituti	-6696
▁arknaq	-6697
▁qullun	-6698
▁jaqitix	-6699
▁porción	-6700
▁diosapan	-6701
▁phiñasiñ	-6702
▁rectitud	-6703
▁markanakax	-6704
▁magistrados	-6705
amap	-6706
aruc	-6707
iertos	-6708
▁joacaz	-6709
▁sistwa	-6710
asipkäna	-6711
▁afrenta	-6712
▁dominio	-6713
▁ucqharu	-6714
▁lurañanak	-6715
asiñapataqui	-6716
cep	-6717
iza	-6718
añut	-6719
imas	-6720
▁och	-6721
▁waj	-6722
▁cuyo	-6723
▁pobr	-6724
▁vale	-6725
▁cerro	-6726
▁ejemp	-6727
▁safán	-6728
anacani	-6729
▁chekat	-6730
▁dejaré	-6731
▁hesbón	-6732
▁pasará	-6733
▁sallkj	-6734
▁sutipx	-6735
▁ochenta	-6736
▁precios	-6737
▁soldado	-6738
▁mensajero	-6739
▁il	-6740
▁taz	-6741
▁wis	-6742
apctam	-6743
▁atipt	-6744
▁caído	-6745
▁nabot	-6746
▁produ	-6747
▁toros	-6748
apjjpan	-6749
▁acacia	-6750
▁destro	-6751
▁leones	-6752
▁pisote	-6753
▁qhitin	-6754
▁tuncani	-6755
▁alaxpachankir	-6756
▁om	-6757
▁sop	-6758
ernas	-6759
▁míos	-6760
▁arsur	-6761
▁sería	-6762
▁walik	-6763
▁bosque	-6764
▁yattwa	-6765
▁decirle	-6766
▁persigu	-6767
aqhisiyat	-6768
▁jawsayan	-6769
▁sarnakañ	-6770
anacarusti	-6771
▁construir	-6772
▁ovejanaca	-6773
hor	-6774
▁tuv	-6775
▁urü	-6776
entas	-6777
imote	-6778
▁excl	-6779
▁jarc	-6780
▁tink	-6781
▁últi	-6782
▁jarek	-6783
▁luram	-6784
▁silen	-6785
▁verlo	-6786
▁timote	-6787
▁wasarar	-6788
▁diosampi	-6789
▁sapjjsma	-6790
▁trompetas	-6791
▁consejeros	-6792
▁diosanacar	-6793
▁kunanakatix	-6794
▁ciro	-6795
ankask	-6796
▁acerc	-6797
▁baruc	-6798
▁mizpa	-6799
▁confir	-6800
▁deshon	-6801
▁países	-6802
apxaraki	-6803
▁beerseba	-6804
▁comprend	-6805
▁markapan	-6806
▁waquicht	-6807
▁phajjsina	-6808
▁qillqatan	-6809
▁kankañampi	-6810
▁sarnakäwinac	-6811
ám	-6812
bran	-6813
jjar	-6814
▁ojo	-6815
genes	-6816
▁satis	-6817
apxañam	-6818
▁orilla	-6819
▁purini	-6820
▁telata	-6821
▁trampa	-6822
▁conocen	-6823
▁jumatak	-6824
anacarusa	-6825
▁chuymajj	-6826
araquiniti	-6827
jak	-6828
▁sun	-6829
▁apro	-6830
▁masi	-6831
▁qala	-6832
▁mullj	-6833
▁uñsti	-6834
▁descar	-6835
▁khuchh	-6836
▁natura	-6837
▁sarasin	-6838
▁khitirus	-6839
▁qhitirus	-6840
anakaparuw	-6841
▁apanucupjj	-6842
▁recompensa	-6843
▁seiscientos	-6844
gura	-6845
itax	-6846
ques	-6847
äkis	-6848
▁khä	-6849
▁lea	-6850
errán	-6851
íncip	-6852
▁janiy	-6853
▁milag	-6854
▁payïr	-6855
▁utanak	-6856
▁vuelve	-6857
▁cortina	-6858
▁preocup	-6859
▁príncip	-6860
▁qalanak	-6861
▁recibió	-6862
▁demonios	-6863
▁expiación	-6864
▁lurapjjäna	-6865
kunapachatix	-6866
eru	-6867
taw	-6868
uél	-6869
chen	-6870
cida	-6871
isaw	-6872
▁abd	-6873
intas	-6874
▁pone	-6875
urusti	-6876
▁arnón	-6877
▁detes	-6878
▁ajjtas	-6879
▁carpan	-6880
▁hazael	-6881
▁hitita	-6882
▁librar	-6883
▁seguía	-6884
▁terrib	-6885
▁churani	-6886
▁davidar	-6887
▁ofreció	-6888
▁semilla	-6889
▁uñtasit	-6890
▁kankañax	-6891
▁pheskani	-6892
▁zorobabel	-6893
▁ucanacarusti	-6894
crón	-6895
unchh	-6896
antani	-6897
atäcäna	-6898
erráneo	-6899
▁insens	-6900
▁manten	-6901
▁vestíb	-6902
▁jacobux	-6903
▁phunchh	-6904
▁qhitäna	-6905
▁katuntañ	-6906
▁nuwantañ	-6907
▁sarjjäna	-6908
▁ucanacata	-6909
▁juparaquiw	-6910
▁mediterráneo	-6911
▁nayraqatapar	-6912
ef	-6913
vés	-6914
aray	-6915
imón	-6916
tayi	-6917
▁qhä	-6918
istir	-6919
jjata	-6920
▁jiwt	-6921
▁leña	-6922
ventud	-6923
▁caerá	-6924
▁dices	-6925
▁inten	-6926
▁pecar	-6927
jerusal	-6928
▁diosay	-6929
▁través	-6930
▁último	-6931
▁janiqui	-6932
▁pasaron	-6933
▁perpetu	-6934
▁benjamin	-6935
▁diosaxay	-6936
▁juventud	-6937
▁ukarusti	-6938
▁amparapar	-6939
▁munañanïñ	-6940
apxarakïnwa	-6941
▁jakenacajja	-6942
aces	-6943
iyan	-6944
mira	-6945
yäta	-6946
amawa	-6947
▁lech	-6948
▁sale	-6949
▁seír	-6950
▁tukuñ	-6951
▁degoll	-6952
▁jutäna	-6953
khititix	-6954
▁ajayojj	-6955
▁vegetal	-6956
▁entender	-6957
▁sumankañ	-6958
▁trabajar	-6959
▁fidelidad	-6960
▁sutinïnwa	-6961
▁ukanakarux	-6962
▁turb	-6963
▁atrás	-6964
▁jallu	-6965
▁rever	-6966
▁salvo	-6967
▁tropas	-6968
▁utapat	-6969
▁jiwasar	-6970
▁sarakat	-6971
anacamajj	-6972
▁sartaway	-6973
▁quinientos	-6974
hi	-6975
att	-6976
jaz	-6977
▁vir	-6978
▁pedr	-6979
▁samc	-6980
▁sena	-6981
▁term	-6982
amajja	-6983
apcsma	-6984
▁deten	-6985
▁quita	-6986
▁asuero	-6987
▁convir	-6988
▁pondrán	-6989
▁práctica	-6990
▁jaqinakap	-6991
▁respuesta	-6992
▁generaciones	-6993
▁nayrakatapanjja	-6994
cul	-6995
ayani	-6996
emías	-6997
▁cree	-6998
▁cuya	-6999
▁usuy	-7000
apcäta	-7001
▁jotam	-7002
apjjewa	-7003
▁vuelvan	-7004
▁hablando	-7005
▁alaxpachat	-7006
▁sarnaqäwip	-7007
▁cunanactejj	-7008
hón	-7009
dena	-7010
ukiw	-7011
▁jaz	-7012
▁detu	-7013
▁situ	-7014
▁taqu	-7015
ecerán	-7016
inakar	-7017
▁moned	-7018
▁simei	-7019
▁vigil	-7020
▁limpio	-7021
▁tarsis	-7022
▁anciano	-7023
▁numeros	-7024
▁uraqiruw	-7025
atäpjjänwa	-7026
▁angelasti	-7027
▁cusisipjj	-7028
▁ucanacsti	-7029
▁ukanaksti	-7030
ale	-7031
▁cop	-7032
▁neb	-7033
▁yan	-7034
anucu	-7035
endor	-7036
▁enal	-7037
▁lawa	-7038
▁llan	-7039
apjjer	-7040
aremos	-7041
▁acuér	-7042
▁duelo	-7043
▁hamat	-7044
▁pacha	-7045
▁perka	-7046
▁uywan	-7047
▁fieles	-7048
▁maynin	-7049
▁podrás	-7050
▁quitado	-7051
▁utaparu	-7052
▁laykusti	-7053
▁nanacasti	-7054
▁contestaron	-7055
▁sacerdotenacan	-7056
jil	-7057
amaya	-7058
▁arun	-7059
▁janq	-7060
▁pose	-7061
▁rend	-7062
▁ayuno	-7063
▁ecrón	-7064
▁jutta	-7065
▁miren	-7066
anacamp	-7067
▁ananuk	-7068
▁uñatat	-7069
▁uñjasi	-7070
amarusti	-7071
▁cayeron	-7072
▁cusisiy	-7073
▁sinagog	-7074
▁urunsti	-7075
▁cancañam	-7076
▁circuncid	-7077
▁kawkharutix	-7078
cla	-7079
lón	-7080
ktan	-7081
▁déci	-7082
▁metal	-7083
▁enalte	-7084
▁partió	-7085
▁yatxat	-7086
▁amonita	-7087
▁escapar	-7088
▁ukawjan	-7089
anacampiw	-7090
janipuniw	-7091
▁janiquiy	-7092
▁kallunac	-7093
▁yäk	-7094
▁coma	-7095
▁paso	-7096
cäyäta	-7097
▁deseo	-7098
▁encen	-7099
▁ropas	-7100
▁argoll	-7101
▁quiera	-7102
▁jiwxäna	-7103
▁maestro	-7104
▁satanás	-7105
▁segunda	-7106
▁sinagoga	-7107
▁chacharux	-7108
▁khithanuk	-7109
apjjaraquïta	-7110
!'.	-7111
jón	-7112
umpiw	-7113
äwiru	-7114
▁darán	-7115
▁manif	-7116
▁mispá	-7117
▁wajjr	-7118
▁establ	-7119
▁lampar	-7120
▁morado	-7121
▁enviaré	-7122
▁etiopía	-7123
▁lurarap	-7124
apuniniwa	-7125
▁diosaman	-7126
gn	-7127
cot	-7128
gor	-7129
ive	-7130
zer	-7131
itwa	-7132
▁ayw	-7133
▁cil	-7134
ipqui	-7135
tejja	-7136
toral	-7137
▁miró	-7138
tieron	-7139
▁salum	-7140
▁yapup	-7141
▁arcnak	-7142
▁hablan	-7143
▁umampi	-7144
apjjañap	-7145
contestó	-7146
▁chuymax	-7147
▁pectoral	-7148
▁ukanakar	-7149
asipjjänwa	-7150
▁chekaparu	-7151
▁destruirá	-7152
▁espadampi	-7153
▁sentencia	-7154
▁alaxpachan	-7155
▁marcanquiri	-7156
▁reconocerán	-7157
▁reconciliación	-7158
sam	-7159
ikhi	-7160
juma	-7161
▁rin	-7162
▁acaz	-7163
▁umañ	-7164
arones	-7165
▁nabal	-7166
araktwa	-7167
▁descub	-7168
▁sarask	-7169
▁orgullos	-7170
▁paternas	-7171
▁pudieron	-7172
▁salvador	-7173
▁ucapacha	-7174
▁construyó	-7175
▁luratapat	-7176
▁convertiré	-7177
▁siscatayna	-7178
til	-7179
ñas	-7180
itus	-7181
mayn	-7182
▁rej	-7183
▁enti	-7184
▁laph	-7185
▁seca	-7186
casina	-7187
▁acajj	-7188
▁cueva	-7189
▁sarir	-7190
▁mentir	-7191
▁olivos	-7192
▁puedes	-7193
▁colinas	-7194
▁consigo	-7195
▁espigas	-7196
▁gomorra	-7197
▁jakañax	-7198
▁janicha	-7199
▁monedas	-7200
▁utjkänti	-7201
▁pecadores	-7202
▁profetasti	-7203
▁nuwasiñataqui	-7204
xä	-7205
jaq	-7206
uñap	-7207
▁ard	-7208
▁ocup	-7209
▁reco	-7210
antado	-7211
tables	-7212
upxäna	-7213
▁antio	-7214
▁estru	-7215
▁jaket	-7216
▁recub	-7217
nayätwa	-7218
▁antutt	-7219
▁laquis	-7220
▁maranï	-7221
iraquini	-7222
▁dispers	-7223
▁luratat	-7224
▁sutinak	-7225
apxañamataki	-7226
▁encontraron	-7227
fa	-7228
ipt	-7229
▁ahí	-7230
▁asp	-7231
▁sad	-7232
achay	-7233
urojj	-7234
▁cabr	-7235
▁uman	-7236
itakix	-7237
▁grupo	-7238
▁janik	-7239
▁mader	-7240
▁nadab	-7241
▁pilar	-7242
▁sucot	-7243
apataki	-7244
▁altara	-7245
▁juchap	-7246
▁cabezas	-7247
▁jezabel	-7248
▁propias	-7249
▁apartado	-7250
▁destruiré	-7251
▁jaqinakamp	-7252
▁metronïnwa	-7253
bé	-7254
dod	-7255
ïki	-7256
▁rap	-7257
añjja	-7258
▁kupi	-7259
▁lurä	-7260
▁mayj	-7261
▁torr	-7262
apkama	-7263
▁afirm	-7264
▁asdod	-7265
▁ciego	-7266
▁ukxar	-7267
xarusti	-7268
▁abisai	-7269
▁engaño	-7270
▁llenos	-7271
▁reyita	-7272
▁traeré	-7273
anacaman	-7274
▁ejemplo	-7275
▁mayampis	-7276
▁subieron	-7277
▁cimientos	-7278
▁dirección	-7279
▁esplendor	-7280
▁kunanaktix	-7281
pat	-7282
paxa	-7283
todo	-7284
kipan	-7285
remos	-7286
ínive	-7287
▁akat	-7288
▁susa	-7289
äkänti	-7290
▁parlt	-7291
▁suyos	-7292
▁templ	-7293
▁luräwip	-7294
▁mayniru	-7295
▁amanecer	-7296
▁ucanquir	-7297
asiñataqui	-7298
▁escuchado	-7299
▁ejercitopan	-7300
enos	-7301
▁cum	-7302
decer	-7303
▁flor	-7304
▁huyó	-7305
▁ikiñ	-7306
▁olor	-7307
ätasti	-7308
▁abund	-7309
▁amtay	-7310
▁concu	-7311
▁opres	-7312
aquïnwa	-7313
enavent	-7314
▁celebr	-7315
▁ciegos	-7316
▁galile	-7317
▁hacían	-7318
▁parlam	-7319
anakamax	-7320
onacasti	-7321
▁jawsäna	-7322
▁yuqapan	-7323
▁contados	-7324
▁jaquirinac	-7325
▁jupanacatjja	-7326
ega	-7327
fre	-7328
amán	-7329
edom	-7330
▁oye	-7331
itäna	-7332
▁luto	-7333
▁viña	-7334
▁estuv	-7335
▁uchañ	-7336
▁viaje	-7337
▁itamar	-7338
▁axsaray	-7339
▁pheskan	-7340
yatichiri	-7341
▁carronac	-7342
▁creyentes	-7343
▁convertido	-7344
▁markanakat	-7345
▁jupanacampi	-7346
tax	-7347
▁za	-7348
resp	-7349
▁arp	-7350
itaki	-7351
miren	-7352
▁sebo	-7353
▁thur	-7354
apquir	-7355
diosax	-7356
urakiw	-7357
▁ambos	-7358
▁ukawj	-7359
lemente	-7360
▁juzgar	-7361
▁podría	-7362
▁thiyan	-7363
▁diosanac	-7364
▁diosanak	-7365
▁especial	-7366
▁gentiles	-7367
▁rodillas	-7368
▁warmimpi	-7369
enaventura	-7370
▁permanece	-7371
▁uñisirinakax	-7372
..	-7373
▁et	-7374
esas	-7375
▁mic	-7376
▁reh	-7377
▁saw	-7378
garon	-7379
▁clar	-7380
▁colo	-7381
▁diec	-7382
▁sueg	-7383
apunim	-7384
pjjaru	-7385
▁arreb	-7386
▁barro	-7387
▁ferez	-7388
▁hirió	-7389
▁midió	-7390
▁pelig	-7391
▁reyiw	-7392
▁kollun	-7393
▁langos	-7394
▁podían	-7395
anacapas	-7396
israelan	-7397
▁campaña	-7398
▁jumatix	-7399
▁thakhin	-7400
▁muchacho	-7401
▁obedecer	-7402
▁cancañajj	-7403
▁verdadero	-7404
▁recibieron	-7405
árs	-7406
érf	-7407
asat	-7408
▁lím	-7409
▁pase	-7410
istaxa	-7411
▁cruci	-7412
▁huérf	-7413
▁lurki	-7414
▁nabat	-7415
▁patan	-7416
▁ruina	-7417
▁bendec	-7418
▁debido	-7419
▁rebeca	-7420
▁jakejja	-7421
▁jiwayat	-7422
▁saraker	-7423
▁chekpach	-7424
▁uraqisti	-7425
▁pensamientos	-7426
▁ukhamarjamaw	-7427
fil	-7428
nuq	-7429
suñ	-7430
▁ed	-7431
cchi	-7432
itsa	-7433
▁min	-7434
apktam	-7435
querib	-7436
▁kipka	-7437
▁tukut	-7438
apkätam	-7439
▁ayllut	-7440
▁joacim	-7441
▁vuelva	-7442
▁iyawsir	-7443
▁mutuyäwi	-7444
▁phaxsina	-7445
▁luratänwa	-7446
▁diosanacaru	-7447
cs	-7448
sem	-7449
iene	-7450
nica	-7451
▁cuy	-7452
▁esf	-7453
▁gui	-7454
▁kus	-7455
▁nun	-7456
asisc	-7457
▁reún	-7458
▁sala	-7459
uraqui	-7460
▁aycha	-7461
▁diste	-7462
▁orien	-7463
▁ucawa	-7464
amañcht	-7465
onacaru	-7466
▁canane	-7467
▁inmedi	-7468
▁tuqiru	-7469
araquïma	-7470
▁khithan	-7471
▁naqhant	-7472
▁nayrajj	-7473
▁paganos	-7474
▁prision	-7475
▁alimento	-7476
▁apthapiñ	-7477
▁muncänti	-7478
▁sirvirip	-7479
▁unañchäwi	-7480
▁enterraron	-7481
▁amparaparuw	-7482
▁jakenacarusti	-7483
allt	-7484
äwit	-7485
anïpx	-7486
cados	-7487
▁barc	-7488
▁samk	-7489
onakax	-7490
▁awkim	-7491
▁hered	-7492
▁llakt	-7493
▁pidió	-7494
▁sirve	-7495
▁chhaqh	-7496
▁perfec	-7497
aparusti	-7498
▁aseguro	-7499
▁joaquín	-7500
▁jutañap	-7501
▁thaquin	-7502
▁jiwjjäna	-7503
▁lurasïna	-7504
▁abrahaman	-7505
▁vestíbulo	-7506
▁kunapachas	-7507
▁puripjjäna	-7508
▁regresaron	-7509
wal	-7510
▁ce	-7511
toma	-7512
tren	-7513
ábol	-7514
▁jur	-7515
▁tob	-7516
▁ull	-7517
cänwa	-7518
äniti	-7519
▁amig	-7520
ampina	-7521
apkitu	-7522
▁calam	-7523
▁churk	-7524
▁llenó	-7525
▁sigue	-7526
▁walsa	-7527
▁pankar	-7528
▁sirven	-7529
▁aaronan	-7530
▁conozco	-7531
▁criados	-7532
▁jakthap	-7533
▁jinetes	-7534
▁parábol	-7535
▁kankañam	-7536
▁orakeruw	-7537
▁partieron	-7538
▁pasatatsti	-7539
▁nayrakatanjja	-7540
uci	-7541
▁ev	-7542
alía	-7543
pana	-7544
▁int	-7545
▁mem	-7546
enaca	-7547
fícil	-7548
unaka	-7549
▁atre	-7550
▁azul	-7551
▁lágr	-7552
▁puse	-7553
▁iquiñ	-7554
▁wajjt	-7555
▁cumple	-7556
▁examin	-7557
▁parljj	-7558
▁ukatxa	-7559
apkaniti	-7560
▁cadenas	-7561
▁kusisit	-7562
▁llamada	-7563
▁rebaños	-7564
anakampiw	-7565
cier	-7566
tada	-7567
▁rum	-7568
amble	-7569
inucu	-7570
losti	-7571
tener	-7572
▁gaza	-7573
▁huer	-7574
ipkäna	-7575
▁oigan	-7576
apjjäma	-7577
▁falsos	-7578
▁jilata	-7579
▁phaxsi	-7580
▁túnica	-7581
▁warxat	-7582
ataraqui	-7583
▁asamble	-7584
▁edificó	-7585
▁circunci	-7586
▁maldades	-7587
▁promesas	-7588
▁servidor	-7589
▁agradable	-7590
▁reyinakan	-7591
▁lurañataqui	-7592
▁quipcaraqui	-7593
rig	-7594
ïni	-7595
arla	-7596
oruw	-7597
asawa	-7598
▁compr	-7599
▁darle	-7600
▁doble	-7601
▁llega	-7602
▁peste	-7603
tatituw	-7604
▁bastón	-7605
▁nacido	-7606
▁ruedas	-7607
▁apayanï	-7608
▁difícil	-7609
▁joseajj	-7610
▁podemos	-7611
▁diosarux	-7612
▁enviaron	-7613
▁iyawsäwi	-7614
▁jakonucu	-7615
▁taypiruw	-7616
▁ucanacarojja	-7617
',	-7618
upj	-7619
aquí	-7620
icia	-7621
zará	-7622
usión	-7623
▁difer	-7624
▁jueces	-7625
anacamsa	-7626
▁janikiy	-7627
▁prometi	-7628
▁diosapar	-7629
▁utjcänti	-7630
▁escondido	-7631
▁asiriankir	-7632
▁jaqinakasa	-7633
▁sarasinjja	-7634
▁dondequiera	-7635
orce	-7636
rame	-7637
▁roc	-7638
känwa	-7639
▁cupi	-7640
▁toro	-7641
ankiri	-7642
▁trajo	-7643
▁esposo	-7644
▁irpäna	-7645
▁nínive	-7646
▁catorce	-7647
▁phajjsi	-7648
▁qhitisa	-7649
▁grandeza	-7650
▁silencio	-7651
▁espíritus	-7652
▁yaqhipanakax	-7653
kaw	-7654
atas	-7655
itual	-7656
▁arpa	-7657
▁atra	-7658
▁impu	-7659
▁sarä	-7660
äwipan	-7661
▁divid	-7662
▁gritó	-7663
▁ponga	-7664
▁rebec	-7665
▁sabía	-7666
▁wajch	-7667
irakïna	-7668
▁costum	-7669
▁mancha	-7670
▁munapx	-7671
▁queden	-7672
▁someti	-7673
▁ocasión	-7674
▁ajayunac	-7675
▁escribió	-7676
▁tatituxa	-7677
▁macedonia	-7678
▁walipuniw	-7679
▁cautividad	-7680
▁quimsakallko	-7681
oka	-7682
▁ye	-7683
arnos	-7684
▁isaí	-7685
ancasc	-7686
itaspa	-7687
▁pocos	-7688
▁uzías	-7689
▁dolores	-7690
▁pedrojj	-7691
▁utjcäna	-7692
▁vanidad	-7693
▁ajayunak	-7694
▁arumasti	-7695
▁axsaramti	-7696
▁castigaré	-7697
▁poderosos	-7698
▁ajjsaramti	-7699
▁sarnakäwip	-7700
▁completamente	-7701
áp	-7702
▁sú	-7703
▁dra	-7704
aptay	-7705
saram	-7706
▁fron	-7707
▁lokh	-7708
▁oyen	-7709
▁utax	-7710
atamat	-7711
itayna	-7712
▁aruma	-7713
▁insul	-7714
▁khesp	-7715
▁tanta	-7716
▁yatek	-7717
bendito	-7718
▁cawqha	-7719
▁comien	-7720
▁lantix	-7721
anacapar	-7722
▁escudos	-7723
▁asquinac	-7724
▁isinakap	-7725
▁menospre	-7726
▁orakesti	-7727
▁profundo	-7728
▁tristeza	-7729
▁levantado	-7730
▁serpiente	-7731
▁sutichäna	-7732
.)	-7733
pro	-7734
▁obs	-7735
eroso	-7736
olver	-7737
ataway	-7738
▁abías	-7739
▁empez	-7740
▁manch	-7741
▁parli	-7742
▁impure	-7743
▁joacín	-7744
▁sierva	-7745
▁tesoro	-7746
▁axsarir	-7747
▁llaquis	-7748
cunatarac	-7749
▁nuwasiri	-7750
▁realidad	-7751
▁estruendo	-7752
anacaparojj	-7753
▁cunapachas	-7754
▁senaquerib	-7755
▁jumanacatejj	-7756
▁alajjpachanquir	-7757
th	-7758
cis	-7759
dez	-7760
ablo	-7761
edos	-7762
jamä	-7763
ktwa	-7764
▁hur	-7765
▁ñuñ	-7766
▁derr	-7767
▁luqh	-7768
▁tuve	-7769
▁wall	-7770
▁awqui	-7771
▁demos	-7772
▁oseas	-7773
ukampis	-7774
▁loktat	-7775
▁payïri	-7776
▁reyipa	-7777
▁uñstay	-7778
▁sasajja	-7779
▁seraías	-7780
▁yatjjat	-7781
▁apnakäna	-7782
▁parlatap	-7783
▁yatiñani	-7784
▁arunacapa	-7785
▁wawanakax	-7786
▁jakenacatejj	-7787
kch	-7788
cana	-7789
▁humo	-7790
▁mill	-7791
▁tupu	-7792
asmati	-7793
irakiw	-7794
▁asael	-7795
▁jilap	-7796
▁jutam	-7797
▁oraci	-7798
▁tomen	-7799
aquïpjj	-7800
äpjjewa	-7801
▁adorar	-7802
▁espera	-7803
▁joseax	-7804
▁juchar	-7805
▁paloma	-7806
entonces	-7807
▁adonías	-7808
▁awkipax	-7809
▁churäma	-7810
▁combate	-7811
▁uywatam	-7812
▁gedalías	-7813
▁munkänti	-7814
▁awkinakap	-7815
▁principal	-7816
▁utjaraquïna	-7817
▁loktañataqui	-7818
-:	-7819
▁;	-7820
lat	-7821
▁ín	-7822
etro	-7823
iyar	-7824
suta	-7825
ísara	-7826
▁pelo	-7827
▁quic	-7828
diosan	-7829
▁botín	-7830
▁ucana	-7831
anakapa	-7832
▁arsupx	-7833
▁katxäs	-7834
▁nayrax	-7835
▁siglos	-7836
anakamsa	-7837
jjaraqui	-7838
▁aspecto	-7839
▁jupatak	-7840
▁puripjj	-7841
▁qhitiru	-7842
▁reyiruw	-7843
▁tiendas	-7844
▁viñedos	-7845
▁jacobojj	-7846
▁lágrimas	-7847
▁milagros	-7848
▁prostituta	-7849
▁wawanakapasti	-7850
jiw	-7851
como	-7852
enci	-7853
escu	-7854
stan	-7855
▁ñiq	-7856
▁khur	-7857
▁waxr	-7858
▁debil	-7859
▁jaltx	-7860
jamänwa	-7861
▁añadió	-7862
▁mesías	-7863
▁pasaba	-7864
▁querido	-7865
▁tributo	-7866
arakiniwa	-7867
umaraptay	-7868
▁contaron	-7869
▁sarnaqañ	-7870
▁samuelojj	-7871
▁tributjja	-7872
jumanacasti	-7873
▁loktäwinac	-7874
▁markanakap	-7875
▁moisesaruw	-7876
▁ofrecieron	-7877
▁jumanacampi	-7878
▁wawanacapan	-7879
erot	-7880
▁qir	-7881
askta	-7882
rande	-7883
äpasa	-7884
ósito	-7885
▁alum	-7886
▁antu	-7887
▁mutu	-7888
▁pich	-7889
▁jonás	-7890
apctati	-7891
▁juchat	-7892
▁qhipäx	-7893
▁sentir	-7894
▁sísara	-7895
▁asamblea	-7896
▁creyeron	-7897
▁instante	-7898
▁mantasin	-7899
▁jumanacataquejj	-7900
▁og	-7901
aqat	-7902
quía	-7903
▁gem	-7904
daías	-7905
▁codi	-7906
▁supo	-7907
▁vano	-7908
tación	-7909
▁enojó	-7910
▁grani	-7911
▁salía	-7912
▁silas	-7913
▁tukur	-7914
▁uscus	-7915
▁arumaw	-7916
▁costal	-7917
▁matado	-7918
▁pusini	-7919
▁resuci	-7920
anacatsa	-7921
▁amorreo	-7922
▁contraw	-7923
▁masinac	-7924
▁maynisa	-7925
▁paypach	-7926
▁rebelde	-7927
▁sagrada	-7928
▁taypiru	-7929
▁ukhamäk	-7930
▁uñjasta	-7931
▁yatiyir	-7932
añaxataki	-7933
añatakisti	-7934
▁cadáveres	-7935
▁markanaka	-7936
▁provincia	-7937
▁caballonac	-7938
▁ukhamarjam	-7939
▁marcanacajj	-7940
▁taqpachaniw	-7941
▁tatitutaqui	-7942
ira	-7943
uya	-7944
cqui	-7945
dito	-7946
▁pudo	-7947
thapis	-7948
▁jacht	-7949
▁lados	-7950
▁pared	-7951
▁rocío	-7952
▁centin	-7953
▁desech	-7954
▁firmes	-7955
▁recuer	-7956
▁sufrir	-7957
▁cristox	-7958
▁dientes	-7959
▁habitan	-7960
▁wakiski	-7961
▁eliseojj	-7962
▁isthapis	-7963
▁jumatejj	-7964
▁pequeños	-7965
▁guerreros	-7966
▁wawanakan	-7967
▁kimsaqallq	-7968
▁descendiente	-7969
aquï	-7970
erro	-7971
ächi	-7972
anael	-7973
▁huir	-7974
▁roci	-7975
▁sell	-7976
xaniti	-7977
▁condu	-7978
▁darío	-7979
▁desob	-7980
▁sello	-7981
nanakax	-7982
▁acción	-7983
▁concien	-7984
▁entrará	-7985
▁mayipjj	-7986
▁sacaron	-7987
▁servirá	-7988
▁wachoka	-7989
caraquiti	-7990
▁adversar	-7991
▁diosapax	-7992
▁natanael	-7993
▁quedarse	-7994
anakarusti	-7995
▁cawqharutejj	-7996
▁nayrakataparu	-7997
nor	-7998
voy	-7999
arim	-8000
leza	-8001
ígan	-8002
akïpx	-8003
entar	-8004
istwa	-8005
▁andu	-8006
▁dile	-8007
▁ocur	-8008
asipun	-8009
atajja	-8010
ciéndo	-8011
idores	-8012
onakar	-8013
äpxiwa	-8014
también	-8015
▁echado	-8016
▁volunt	-8017
atapatxa	-8018
▁chhijchh	-8019
▁murallas	-8020
▁ucanacat	-8021
▁nayarusti	-8022
▁sarjjapjj	-8023
▁gobernante	-8024
▁importante	-8025
äsk	-8026
iqhi	-8027
jera	-8028
urre	-8029
▁ayu	-8030
▁jaf	-8031
rense	-8032
staxa	-8033
xarus	-8034
▁enfr	-8035
▁once	-8036
▁quen	-8037
äwisti	-8038
▁muros	-8039
▁resid	-8040
▁tales	-8041
istasti	-8042
quistati	-8043
▁bernabe	-8044
▁columna	-8045
▁cuentas	-8046
▁jaqiruw	-8047
▁monstru	-8048
▁taypita	-8049
▁utjañap	-8050
▁destruyó	-8051
▁madianit	-8052
▁quisieron	-8053
▁yatipxani	-8054
atäñapataki	-8055
▁estuvieron	-8056
▁iyawsirinac	-8057
▁sobrevivientes	-8058
"?	-8059
ese	-8060
▁iwx	-8061
▁mam	-8062
aspan	-8063
guido	-8064
monos	-8065
▁apac	-8066
▁dada	-8067
▁fama	-8068
▁irre	-8069
▁juró	-8070
▁saulo	-8071
▁thayt	-8072
▁uñjay	-8073
▁altura	-8074
▁cercan	-8075
▁fieras	-8076
▁jaketa	-8077
▁mathap	-8078
▁maynic	-8079
▁aquello	-8080
▁cuerpos	-8081
jerusalén	-8082
▁chekanwa	-8083
▁diosamar	-8084
▁noticias	-8085
▁ofrecerá	-8086
▁pariente	-8087
▁corazones	-8088
▁manantial	-8089
ciertamente	-8090
▁alajjpachat	-8091
▁filisteonakan	-8092
éra	-8093
acajj	-8094
istas	-8095
rojja	-8096
▁jacas	-8097
▁tropi	-8098
inacasa	-8099
▁diosas	-8100
▁felipe	-8101
▁lurcta	-8102
▁tendré	-8103
▁utjask	-8104
cjjaniti	-8105
▁declara	-8106
▁parezca	-8107
▁perdona	-8108
▁patacani	-8109
▁visiones	-8110
▁awquipajj	-8111
▁diosamajj	-8112
▁destruidos	-8113
má	-8114
rí	-8115
tis	-8116
▁ic	-8117
cada	-8118
kiri	-8119
estro	-8120
itofel	-8121
▁besti	-8122
▁ánimo	-8123
▁comido	-8124
▁entren	-8125
▁planta	-8126
▁procur	-8127
nosotros	-8128
▁escuchó	-8129
▁kutikip	-8130
▁llegará	-8131
▁mistüna	-8132
asisinjja	-8133
▁chuymapan	-8134
▁multiplic	-8135
▁yuqanakap	-8136
▁thaquinjam	-8137
▁establecido	-8138
▁sacerdotenakax	-8139
pad	-8140
cuál	-8141
edec	-8142
rada	-8143
rido	-8144
aquip	-8145
endas	-8146
rutix	-8147
▁arru	-8148
irejja	-8149
▁inmun	-8150
▁kunäk	-8151
▁ajayux	-8152
▁alinak	-8153
▁lurasa	-8154
▁partir	-8155
▁repres	-8156
▁salgan	-8157
▁viudas	-8158
qhitirac	-8159
▁yuqapar	-8160
qhititejj	-8161
▁becerros	-8162
▁chachanac	-8163
▁sacerdotë	-8164
▁wasararuw	-8165
▁jumanakatak	-8166
▁yatiyapxäna	-8167
alón	-8168
anïp	-8169
enda	-8170
ixay	-8171
quil	-8172
atäna	-8173
▁celo	-8174
▁unas	-8175
▁tayna	-8176
▁diablo	-8177
▁encend	-8178
▁encina	-8179
▁lurasc	-8180
▁ucjjar	-8181
▁yänaca	-8182
asiñatak	-8183
▁phaxsin	-8184
▁kamachip	-8185
▁parlapjj	-8186
▁chachänwa	-8187
▁encontrado	-8188
▁khepärmanth	-8189
▁pampachatäñ	-8190
-,	-8191
añaw	-8192
uele	-8193
▁aar	-8194
▁don	-8195
▁zim	-8196
▁ñek	-8197
ajjan	-8198
tiene	-8199
▁caín	-8200
▁cunä	-8201
▁joel	-8202
▁jïsa	-8203
▁kams	-8204
▁korp	-8205
▁lago	-8206
asinsa	-8207
▁hemán	-8208
▁jaljt	-8209
▁marti	-8210
▁varón	-8211
ibución	-8212
▁blanco	-8213
▁impura	-8214
▁sueños	-8215
▁entrado	-8216
▁inclinó	-8217
▁injusti	-8218
▁lurañax	-8219
▁markach	-8220
▁quebran	-8221
▁qullana	-8222
▁sapakiw	-8223
▁taqinin	-8224
▁warjjat	-8225
▁impuesto	-8226
▁oriental	-8227
▁sapjjäna	-8228
▁dispuesto	-8229
▁levántate	-8230
▁salomonax	-8231
▁caballería	-8232
▁cancañampi	-8233
▁nayratpach	-8234
ema	-8235
ïsc	-8236
anix	-8237
ipkta	-8238
semes	-8239
tasaw	-8240
kituti	-8241
▁abiga	-8242
▁awati	-8243
▁digno	-8244
▁espir	-8245
▁qhipa	-8246
▁pampan	-8247
apcaniti	-8248
▁acercar	-8249
▁espinos	-8250
▁vivirán	-8251
▁bautismo	-8252
▁bronceta	-8253
▁sarapxam	-8254
▁yokaparu	-8255
▁jaqinakaru	-8256
▁marcanacaru	-8257
▁churañataqui	-8258
sur	-8259
acen	-8260
achu	-8261
axat	-8262
▁puy	-8263
▁tru	-8264
tajer	-8265
▁asia	-8266
▁peca	-8267
▁vasi	-8268
sipana	-8269
▁ukata	-8270
▁deseos	-8271
▁gramos	-8272
▁sonido	-8273
▁uñjask	-8274
tajerjes	-8275
▁jichhas	-8276
▁luqtiri	-8277
▁munatap	-8278
▁tatitup	-8279
▁tomarán	-8280
araquejja	-8281
jjepansti	-8282
▁jilarkir	-8283
▁luqtirim	-8284
▁rebeldes	-8285
▁santidad	-8286
▁adulterio	-8287
▁condenado	-8288
▁diosajjay	-8289
▁uñjasasti	-8290
▁judionakan	-8291
▁lurkatayna	-8292
▁marcanacasti	-8293
▁utjnuqtapxäna	-8294
dé	-8295
ibe	-8296
rab	-8297
▁fut	-8298
▁mez	-8299
▁trá	-8300
▁dura	-8301
▁heve	-8302
▁phay	-8303
▁raíz	-8304
▁trop	-8305
asipca	-8306
ipansa	-8307
khitis	-8308
quistu	-8309
▁desig	-8310
▁malde	-8311
▁manda	-8312
▁terre	-8313
babilon	-8314
▁anatot	-8315
▁comerá	-8316
▁cruzar	-8317
▁fuiste	-8318
▁uñstan	-8319
araktaxa	-8320
▁atipjay	-8321
▁lurcäna	-8322
▁markaru	-8323
▁pondrás	-8324
▁mistusin	-8325
▁uñjasajj	-8326
▁mistunïna	-8327
▁judionacan	-8328
eba	-8329
gad	-8330
tti	-8331
uwa	-8332
▁tó	-8333
cías	-8334
irus	-8335
orio	-8336
▁jed	-8337
david	-8338
▁cont	-8339
▁maas	-8340
▁temb	-8341
añatac	-8342
inacan	-8343
vengan	-8344
▁qhant	-8345
inacaru	-8346
irakiwa	-8347
äñapawa	-8348
▁amuyun	-8349
▁llevan	-8350
▁recons	-8351
▁willjt	-8352
▁sapaqat	-8353
▁utjäwip	-8354
▁exterior	-8355
▁wiñayawa	-8356
▁apanukupx	-8357
▁puripxäna	-8358
▁ucanacasa	-8359
▁yatisinxa	-8360
▁relaciones	-8361
▁tatitütajja	-8362
▁fortificadas	-8363
her	-8364
▁uri	-8365
brado	-8366
onías	-8367
uraki	-8368
äcäna	-8369
▁acat	-8370
▁ajim	-8371
▁inak	-8372
▁maná	-8373
▁trai	-8374
anitas	-8375
käyäta	-8376
▁amuct	-8377
▁borde	-8378
▁brill	-8379
▁darás	-8380
▁ninar	-8381
▁punto	-8382
▁rollo	-8383
▁veras	-8384
apxañap	-8385
kunarak	-8386
uraquiw	-8387
▁atalía	-8388
▁samari	-8389
▁utjcän	-8390
cawquïri	-8391
▁hiciera	-8392
▁jiwañat	-8393
▁uraqina	-8394
▁cubierta	-8395
▁encontra	-8396
▁kawkhank	-8397
▁tatituta	-8398
▁acapachan	-8399
▁anunciado	-8400
▁habitaban	-8401
▁reconstru	-8402
▁wawanacajj	-8403
▁urunakansti	-8404
▁jaqinakarusti	-8405
▁há	-8406
ctam	-8407
süna	-8408
▁suj	-8409
aqham	-8410
askir	-8411
iasan	-8412
irusa	-8413
zando	-8414
▁base	-8415
▁borr	-8416
▁iwxa	-8417
▁leet	-8418
▁qarq	-8419
▁umar	-8420
ïspawa	-8421
▁barac	-8422
▁cubre	-8423
▁quebr	-8424
ampirux	-8425
istajja	-8426
▁lament	-8427
▁mantan	-8428
▁medida	-8429
▁pensar	-8430
▁usunac	-8431
▁aliento	-8432
▁mayacht	-8433
▁qullqit	-8434
▁sapüruw	-8435
quiraquiw	-8436
▁chikatan	-8437
▁personal	-8438
▁pobrenac	-8439
▁sutimpiw	-8440
▁destierro	-8441
▁escogidos	-8442
▁ofrecerán	-8443
pacharaquiw	-8444
▁yatisinjja	-8445
elas	-8446
▁acá	-8447
▁enf	-8448
▁vea	-8449
eosti	-8450
jaron	-8451
▁acor	-8452
kätati	-8453
▁labra	-8454
▁patjj	-8455
▁quemó	-8456
▁vivos	-8457
▁ídolo	-8458
arakitu	-8459
arakïwa	-8460
▁janchi	-8461
▁llanto	-8462
apjjañam	-8463
añanacap	-8464
onakampi	-8465
xapxänwa	-8466
▁jacañajj	-8467
▁porteros	-8468
▁aaronampi	-8469
▁taqpachan	-8470
▁animalanac	-8471
▁candelabro	-8472
▁autoridades	-8473
asipjjaraquim	-8474
zara	-8475
majja	-8476
▁aped	-8477
▁fino	-8478
▁fund	-8479
▁grab	-8480
▁mefi	-8481
▁misk	-8482
asirac	-8483
▁coloc	-8484
▁horeb	-8485
▁kotan	-8486
▁libró	-8487
▁medía	-8488
▁murur	-8489
▁tucur	-8490
▁mayipx	-8491
▁realiz	-8492
▁sapüru	-8493
amapampi	-8494
▁comprar	-8495
▁conspir	-8496
▁escriba	-8497
▁kamacht	-8498
▁maranac	-8499
▁nanacar	-8500
▁pachpan	-8501
▁posible	-8502
▁varones	-8503
urrección	-8504
▁diosamaw	-8505
▁jebuseos	-8506
▁kuttayan	-8507
▁oraktejj	-8508
▁viviente	-8509
▁waquisqui	-8510
asipkakïnwa	-8511
▁artajerjes	-8512
▁markanakasti	-8513
▁filisteonacan	-8514
▁babilonianquiri	-8515
-.	-8516
tsa	-8517
añar	-8518
ctan	-8519
ukat	-8520
▁azu	-8521
▁gos	-8522
▁mús	-8523
▁rug	-8524
ayask	-8525
ürojj	-8526
▁imañ	-8527
▁mont	-8528
▁ucür	-8529
aqasiñ	-8530
itänwa	-8531
kirist	-8532
orusti	-8533
quense	-8534
▁andan	-8535
▁askir	-8536
▁macho	-8537
▁temas	-8538
▁tokew	-8539
▁yapun	-8540
▁afuera	-8541
▁estaré	-8542
▁llamas	-8543
▁bernabé	-8544
▁cancaña	-8545
▁diosawa	-8546
▁hermosa	-8547
▁impuros	-8548
▁lenguas	-8549
▁sutinac	-8550
▁apanucut	-8551
▁estanque	-8552
▁atardecer	-8553
▁bendicion	-8554
▁jakirinak	-8555
▁uñjasipjj	-8556
▁ukhamarusa	-8557
▁jumanacatjja	-8558
iya	-8559
äsc	-8560
üta	-8561
feso	-8562
▁dal	-8563
ipkän	-8564
quini	-8565
▁arom	-8566
acamaw	-8567
riñchj	-8568
▁churx	-8569
▁mical	-8570
▁subía	-8571
amarusa	-8572
kxaniti	-8573
tatpach	-8574
▁siquén	-8575
casinjja	-8576
▁amtäwip	-8577
▁ananías	-8578
▁apartar	-8579
▁memoria	-8580
▁timoteo	-8581
▁uywirip	-8582
▁despidió	-8583
▁trajeron	-8584
▁taypitjja	-8585
▁conciencia	-8586
▁egiptonquir	-8587
▁urunacanjja	-8588
▁abominaciones	-8589
lá	-8590
hur	-8591
mur	-8592
son	-8593
val	-8594
▁jú	-8595
▁zo	-8596
dure	-8597
utas	-8598
▁sof	-8599
untos	-8600
▁chap	-8601
irïnwa	-8602
▁calle	-8603
▁maltr	-8604
▁nació	-8605
▁teman	-8606
amaniwa	-8607
apktati	-8608
maestro	-8609
▁grupos	-8610
▁jakont	-8611
▁quince	-8612
▁saparu	-8613
▁uñtatä	-8614
ayapxäna	-8615
▁parecía	-8616
▁parlxay	-8617
▁terminó	-8618
▁cantores	-8619
▁conquist	-8620
▁presenta	-8621
▁paciencia	-8622
▁transgres	-8623
ankirinakax	-8624
▁jutasinjja	-8625
▁nayrakatana	-8626
▁familianacap	-8627
vio	-8628
zab	-8629
acur	-8630
inuq	-8631
▁aro	-8632
tendr	-8633
▁sepa	-8634
▁sete	-8635
kxänti	-8636
ätamwa	-8637
▁amasa	-8638
▁aquis	-8639
▁arena	-8640
▁arrod	-8641
▁jalan	-8642
▁purak	-8643
▁redim	-8644
tatitur	-8645
▁acasti	-8646
▁cuttay	-8647
▁lavará	-8648
▁litros	-8649
▁reposó	-8650
▁sirvan	-8651
▁apayäna	-8652
▁higuera	-8653
▁masipar	-8654
▁sagrado	-8655
▁antiguos	-8656
▁jaytanuk	-8657
▁munasita	-8658
asiraquini	-8659
▁nayataqui	-8660
▁necesidad	-8661
▁occidente	-8662
▁yokapasti	-8663
▁comandante	-8664
▁presentaron	-8665
▁saraqirinak	-8666
▁prostitución	-8667
▁resurrección	-8668
▁continuamente	-8669
jac	-8670
waw	-8671
anxa	-8672
jjäs	-8673
tasim	-8674
uchur	-8675
▁lurt	-8676
▁miem	-8677
▁misq	-8678
▁orar	-8679
apatsa	-8680
aspawa	-8681
panjja	-8682
▁diera	-8683
▁fares	-8684
▁llact	-8685
▁muere	-8686
▁prisa	-8687
iraquim	-8688
iristam	-8689
▁aprend	-8690
▁endure	-8691
▁profun	-8692
▁usunak	-8693
aractjja	-8694
▁abierto	-8695
▁esclava	-8696
▁nayatac	-8697
▁puriyañ	-8698
▁miembros	-8699
▁amparapan	-8700
▁encargado	-8701
▁estatutos	-8702
▁jakenacat	-8703
▁churapxäna	-8704
▁wawanakapan	-8705
apjjaraquiniwa	-8706
iju	-8707
edor	-8708
▁alé	-8709
▁bre	-8710
▁imá	-8711
▁águ	-8712
ajkir	-8713
▁aromá	-8714
▁disfr	-8715
▁eliab	-8716
▁envío	-8717
▁selah	-8718
▁seman	-8719
▁éfeso	-8720
atakiwa	-8721
▁churta	-8722
▁kallta	-8723
▁marcha	-8724
▁pedror	-8725
▁uchäta	-8726
▁wawani	-8727
▁mesulam	-8728
▁aceitemp	-8729
▁celebrar	-8730
▁chekapar	-8731
▁engrande	-8732
▁horasajj	-8733
▁imágenes	-8734
▁purinini	-8735
▁terrible	-8736
▁ukanaksa	-8737
▁arkirinak	-8738
▁extendido	-8739
▁lurapxäta	-8740
▁davidarojj	-8741
▁uñjasipxani	-8742
íe	-8743
ïma	-8744
anjj	-8745
tajj	-8746
iende	-8747
menta	-8748
▁abre	-8749
▁disp	-8750
▁sabá	-8751
▁utam	-8752
amaniw	-8753
▁color	-8754
▁debes	-8755
▁lunth	-8756
▁phukh	-8757
▁trece	-8758
caspasa	-8759
▁escudo	-8760
▁jaqunt	-8761
▁quemar	-8762
▁unidos	-8763
▁uñjani	-8764
▁llanura	-8765
▁saldrán	-8766
▁kusisipx	-8767
▁patjjaru	-8768
▁qillqant	-8769
▁sarakiwa	-8770
▁uraqpach	-8771
▁venganza	-8772
▁consultar	-8773
▁diosaparu	-8774
▁juchanakap	-8775
▁salomonajj	-8776
▁apostolunak	-8777
▁sacerdotesti	-8778
▁sacerdotenacajj	-8779
av	-8780
jur	-8781
mis	-8782
okh	-8783
uce	-8784
acio	-8785
chek	-8786
ikiw	-8787
▁dul	-8788
▁eje	-8789
▁mux	-8790
▁deje	-8791
▁infi	-8792
▁irán	-8793
▁miré	-8794
ciende	-8795
▁convo	-8796
▁hablo	-8797
▁khant	-8798
▁nieto	-8799
▁saqué	-8800
▁trata	-8801
▁uñtam	-8802
▁viñas	-8803
cawquïr	-8804
▁apedre	-8805
▁apenas	-8806
▁darles	-8807
▁perder	-8808
▁vuelta	-8809
quisedec	-8810
▁escogió	-8811
▁espadas	-8812
▁guersón	-8813
asirakïna	-8814
respondió	-8815
▁diciéndo	-8816
▁incensar	-8817
▁jikxatap	-8818
▁sartasin	-8819
aquiraquiw	-8820
▁levantará	-8821
▁significa	-8822
▁sirvirejj	-8823
asiñapataki	-8824
▁desolación	-8825
▁luqtañatak	-8826
▁amparanacap	-8827
▁apnaqirinak	-8828
▁melquisedec	-8829
▁avergonzados	-8830
▁inteligencia	-8831
▁agr	-8832
▁him	-8833
▁pago	-8834
▁ewjjt	-8835
▁halló	-8836
▁liwis	-8837
▁mayiñ	-8838
akimaya	-8839
anakjam	-8840
ipjjani	-8841
▁colina	-8842
▁lurkta	-8843
▁marani	-8844
▁mistuni	-8845
▁pablojj	-8846
▁patakan	-8847
▁sábados	-8848
▁yokapan	-8849
▁palacios	-8850
▁valiente	-8851
▁arquirinac	-8852
ataraquïniwa	-8853
▁territorios	-8854
▁luratanakapat	-8855
agr	-8856
uqu	-8857
▁cl	-8858
aria	-8859
▁pul	-8860
▁vel	-8861
▁hist	-8862
asispa	-8863
asiway	-8864
▁acaso	-8865
▁admir	-8866
▁hayas	-8867
cientas	-8868
cjjänti	-8869
jjatjja	-8870
▁churjj	-8871
▁demasi	-8872
▁instal	-8873
▁uñisir	-8874
▁vestir	-8875
▁waranq	-8876
▁extraño	-8877
▁habitar	-8878
▁laycojj	-8879
▁lurañap	-8880
▁recoger	-8881
araquïnti	-8882
▁historia	-8883
▁lámparas	-8884
▁marcpach	-8885
▁antioquía	-8886
▁eliseosti	-8887
▁resplande	-8888
▁santísimo	-8889
tañapataqui	-8890
▁khitirutix	-8891
▁provincias	-8892
▁qhitirutejj	-8893
▁gobernadores	-8894
rer	-8895
ebre	-8896
uxña	-8897
vido	-8898
▁jah	-8899
▁ñus	-8900
apäna	-8901
carac	-8902
todos	-8903
▁bend	-8904
▁duro	-8905
▁esti	-8906
▁jaqï	-8907
aparus	-8908
añajja	-8909
▁ejecu	-8910
▁maaca	-8911
▁sembr	-8912
anakana	-8913
apjjsma	-8914
ochupjj	-8915
xapxäta	-8916
▁defend	-8917
▁jachañ	-8918
▁taypir	-8919
▁tropez	-8920
apampejj	-8921
▁eliasib	-8922
▁heridas	-8923
▁inmoral	-8924
▁khepäjj	-8925
▁wiñayan	-8926
jamaraqui	-8927
▁cuttanjj	-8928
▁iglesias	-8929
▁compañero	-8930
▁marcatjja	-8931
▁sarapjjam	-8932
▁vivientes	-8933
▁yatiyiriw	-8934
▁reverencia	-8935
▁awquinacajj	-8936
▁israelankir	-8937
▁nayraqataparuw	-8938
aun	-8939
esc	-8940
umin	-8941
utún	-8942
abías	-8943
▁pill	-8944
▁sill	-8945
▁dejes	-8946
▁diver	-8947
▁pantj	-8948
▁tansa	-8949
▁uñjam	-8950
▁varas	-8951
ochunac	-8952
▁cawqui	-8953
▁clamor	-8954
▁estatu	-8955
▁explic	-8956
▁jiquis	-8957
▁joyada	-8958
▁kimsan	-8959
▁llorar	-8960
▁mortal	-8961
▁roboán	-8962
▁salían	-8963
atpachwa	-8964
▁awkixan	-8965
▁eliseox	-8966
▁jedutún	-8967
▁jonadab	-8968
▁moabita	-8969
▁reyipan	-8970
▁últimos	-8971
▁llevados	-8972
▁ovejanac	-8973
▁pablosti	-8974
▁uñjasïta	-8975
ayaraquïna	-8976
▁convirtió	-8977
▁jilanakap	-8978
▁preciosas	-8979
▁detestables	-8980
▁nayrakatapan	-8981
▁arsutaparjamaw	-8982
lu	-8983
món	-8984
anuc	-8985
cían	-8986
guar	-8987
vado	-8988
▁hel	-8989
▁tac	-8990
anqha	-8991
ayasc	-8992
itajj	-8993
jiste	-8994
▁dist	-8995
▁prob	-8996
cjjeti	-8997
▁comió	-8998
▁jorán	-8999
▁linot	-9000
▁pasto	-9001
▁purap	-9002
▁uñnaq	-9003
aleluya	-9004
después	-9005
diosajj	-9006
▁maysar	-9007
▁siguen	-9008
▁astarté	-9009
▁comunic	-9010
▁destruc	-9011
▁jiwatap	-9012
▁luqtäna	-9013
▁puriniñ	-9014
▁satisfe	-9015
▁enfermos	-9016
▁mentiras	-9017
▁tribunal	-9018
▁encuentra	-9019
▁phunchhäwi	-9020
▁consagrados	-9021
tía	-9022
xän	-9023
▁air	-9024
▁cae	-9025
▁zar	-9026
nayar	-9027
▁carg	-9028
▁coat	-9029
▁jakh	-9030
▁paja	-9031
▁taru	-9032
▁tunc	-9033
inados	-9034
äcänti	-9035
▁abrán	-9036
▁eglón	-9037
asipxta	-9038
äpxtawa	-9039
ürutejj	-9040
▁asquir	-9041
▁consti	-9042
▁fuente	-9043
▁jurado	-9044
▁kuttay	-9045
▁respet	-9046
▁cusisit	-9047
▁munasir	-9048
▁novillo	-9049
▁vecinos	-9050
▁warmiru	-9051
apjjätati	-9052
▁escritos	-9053
▁provinci	-9054
▁quimsïri	-9055
▁abrahamax	-9056
▁lurañatak	-9057
▁markansti	-9058
▁pertenece	-9059
▁presentes	-9060
▁sapjjsmawa	-9061
▁instrumentos	-9062
asipjjaraquïna	-9063
▁jupanacataquejj	-9064
akax	-9065
▁cup	-9066
▁pri	-9067
amata	-9068
atäta	-9069
awjan	-9070
▁qhum	-9071
▁such	-9072
▁tinc	-9073
▁trae	-9074
onacsa	-9075
▁amukt	-9076
▁grasa	-9077
▁pasos	-9078
▁temen	-9079
ipuniwa	-9080
ituales	-9081
▁korita	-9082
▁mismas	-9083
▁montón	-9084
▁qhirwa	-9085
▁sarapx	-9086
▁uñjasc	-9087
anacansa	-9088
responde	-9089
▁conoces	-9090
▁cumplan	-9091
▁jiwatat	-9092
▁jutcani	-9093
▁katuqañ	-9094
▁reconoz	-9095
▁urunaca	-9096
▁utjkäna	-9097
ayañataki	-9098
▁axtaskañ	-9099
▁cristojj	-9100
▁orakpach	-9101
▁ucanacaw	-9102
▁destruida	-9103
▁sapxsmawa	-9104
▁sutipasti	-9105
▁madianitas	-9106
▁kamachinakax	-9107
cí	-9108
ago	-9109
äxa	-9110
ïwi	-9111
dera	-9112
adías	-9113
amach	-9114
iriwa	-9115
▁dedo	-9116
▁jero	-9117
▁refa	-9118
▁wart	-9119
unthap	-9120
▁admin	-9121
▁apani	-9122
▁uruna	-9123
▁uziel	-9124
▁ayrunt	-9125
▁milagr	-9126
▁pedido	-9127
▁postró	-9128
▁precio	-9129
▁situwa	-9130
▁tobías	-9131
asirinak	-9132
▁reyejja	-9133
▁llätunca	-9134
▁mandatos	-9135
▁uñisirim	-9136
▁presentar	-9137
ataraquïnwa	-9138
▁egiptonkir	-9139
▁markanakaruw	-9140
▁purificación	-9141
col	-9142
tun	-9143
ches	-9144
upat	-9145
akïta	-9146
injja	-9147
▁vete	-9148
tatitu	-9149
▁albor	-9150
▁calor	-9151
▁manoa	-9152
▁reman	-9153
▁alinac	-9154
▁detuvo	-9155
▁enfure	-9156
▁luraña	-9157
▁mueran	-9158
▁munapk	-9159
▁quinto	-9160
▁sufici	-9161
▁warmim	-9162
atäpxiwa	-9163
idamente	-9164
▁humanos	-9165
▁jayarst	-9166
▁jiwañar	-9167
▁maranak	-9168
▁procura	-9169
▁tercero	-9170
▁edificio	-9171
▁escribas	-9172
▁mediante	-9173
▁mostrado	-9174
▁muyuntay	-9175
▁servirán	-9176
▁acuérdate	-9177
▁janchinac	-9178
▁puriñcama	-9179
▁remanente	-9180
▁cawquïritï	-9181
▁taycapasti	-9182
▁qhipärmanth	-9183
jud	-9184
okt	-9185
pue	-9186
ites	-9187
ézer	-9188
icios	-9189
sasar	-9190
xatay	-9191
▁iran	-9192
▁lant	-9193
▁timn	-9194
▁aroer	-9195
▁crías	-9196
▁lawat	-9197
▁lejan	-9198
▁salga	-9199
▁sorte	-9200
▁yatta	-9201
quipana	-9202
▁joiada	-9203
▁kipkaw	-9204
▁sasiwa	-9205
▁umasti	-9206
▁cesarea	-9207
▁chiqach	-9208
▁débiles	-9209
▁taqinis	-9210
▁arunacwa	-9211
▁jilïripa	-9212
▁luqtirip	-9213
▁monstruo	-9214
▁nacieron	-9215
▁poderosa	-9216
▁samuelux	-9217
▁amtäwinak	-9218
▁jesusaruw	-9219
▁reyinacan	-9220
▁yupaychir	-9221
▁akanakänwa	-9222
▁setecientos	-9223
aphi	-9224
isma	-9225
▁cur	-9226
entre	-9227
habla	-9228
isina	-9229
▁peor	-9230
▁simp	-9231
▁sobr	-9232
▁verá	-9233
▁aptan	-9234
▁paral	-9235
▁plaga	-9236
apatsti	-9237
atapjja	-9238
▁betsab	-9239
▁pablox	-9240
▁postes	-9241
▁prosti	-9242
▁tantos	-9243
▁traerá	-9244
▁tukjat	-9245
▁utjant	-9246
▁asquiwa	-9247
▁carmelo	-9248
▁corneta	-9249
▁granizo	-9250
▁matarlo	-9251
▁pantjas	-9252
▁chhiqhan	-9253
▁hablaron	-9254
▁jiwayäna	-9255
▁tatituwa	-9256
▁ukanakxa	-9257
▁masinakax	-9258
▁jaltjjapjj	-9259
▁ucanacänwa	-9260
▁corresponde	-9261
▁jupanakatak	-9262
▁wawanakapar	-9263
har	-9264
jax	-9265
onio	-9266
▁luc	-9267
itura	-9268
zarán	-9269
▁acud	-9270
▁onjj	-9271
▁qhix	-9272
▁rabá	-9273
▁siem	-9274
▁suel	-9275
askiti	-9276
atjama	-9277
cänjja	-9278
erador	-9279
xapxam	-9280
▁aptat	-9281
▁cadés	-9282
▁canto	-9283
▁libna	-9284
asinsma	-9285
cäntejj	-9286
▁arrojó	-9287
▁cumpla	-9288
▁gabaon	-9289
▁gersón	-9290
▁punkun	-9291
▁rectos	-9292
▁reyisa	-9293
▁sarani	-9294
▁sasaxa	-9295
▁tukuni	-9296
▁yuspag	-9297
▁arsutam	-9298
▁cananeo	-9299
▁janchix	-9300
▁suertes	-9301
▁ukhamax	-9302
anacatjja	-9303
anacaparuw	-9304
äñapataqui	-9305
▁axsarañat	-9306
▁kusisiñat	-9307
▁nayrapach	-9308
▁yuqaparuw	-9309
▁luqtäwinak	-9310
▁sacerdotew	-9311
▁ucanacarusa	-9312
▁uqhamaraquiwa	-9313
ew	-9314
clag	-9315
egip	-9316
▁anh	-9317
▁veo	-9318
▁abis	-9319
▁acar	-9320
▁peña	-9321
▁thok	-9322
▁wiph	-9323
ürutix	-9324
▁crean	-9325
▁leyip	-9326
äyätawa	-9327
▁jardín	-9328
▁siclag	-9329
▁ucampi	-9330
▁utaman	-9331
▁uñisiñ	-9332
▁churitu	-9333
▁comerci	-9334
▁dejarán	-9335
▁enseñar	-9336
▁imantat	-9337
▁jilapan	-9338
▁marcata	-9339
▁perfume	-9340
▁reprend	-9341
▁thiyaru	-9342
▁markpach	-9343
▁sexuales	-9344
▁yatiyiri	-9345
▁obedecido	-9346
▁qhispiyir	-9347
▁uñjarakta	-9348
▁yatipxäta	-9349
▁acanacasti	-9350
▁acompañado	-9351
▁templopana	-9352
▁jumanakampi	-9353
▁wiñayatakiw	-9354
▁munañaparjam	-9355
▁quipcaraquiw	-9356
▁yakhepanacajj	-9357
tus	-9358
paru	-9359
ästi	-9360
▁cis	-9361
ierno	-9362
▁quiz	-9363
▁decid	-9364
▁ukkha	-9365
apxatam	-9366
▁ataque	-9367
▁joiadá	-9368
▁testig	-9369
anakamat	-9370
▁amtasiñ	-9371
▁chuymaw	-9372
▁herenci	-9373
▁katusin	-9374
▁reyipax	-9375
▁saranuk	-9376
▁arrodill	-9377
▁decidido	-9378
▁extiende	-9379
▁khathati	-9380
▁moabitas	-9381
▁numeroso	-9382
▁sucedido	-9383
▁uraqirux	-9384
ascaquïnwa	-9385
▁emperador	-9386
▁entregaré	-9387
▁luririnac	-9388
▁tawaqunak	-9389
▁kellkatawa	-9390
▁mayninakasti	-9391
▁pachparaquiw	-9392
jjä	-9393
äspa	-9394
▁asá	-9395
▁ray	-9396
ampun	-9397
ankha	-9398
axwañ	-9399
ayitu	-9400
dados	-9401
jutam	-9402
▁cena	-9403
▁hund	-9404
▁seol	-9405
▁catar	-9406
▁hecha	-9407
▁jabés	-9408
▁katur	-9409
▁kunat	-9410
▁pilas	-9411
▁sisma	-9412
▁usunt	-9413
ucampis	-9414
▁agrada	-9415
▁chekar	-9416
▁jutiri	-9417
▁mistuy	-9418
▁mostró	-9419
▁puesta	-9420
▁refugi	-9421
▁reunir	-9422
▁utaruw	-9423
▁wakisi	-9424
asataqui	-9425
uqhamajj	-9426
▁betsabé	-9427
▁hilcías	-9428
▁salario	-9429
▁yatirac	-9430
apjjaniwa	-9431
▁particip	-9432
▁resucitó	-9433
▁santiago	-9434
▁umatatay	-9435
anïpjjänwa	-9436
añataquejj	-9437
▁awkinakax	-9438
▁bendecido	-9439
▁nanakasti	-9440
▁luqtirinak	-9441
▁chachanakax	-9442
▁yatiyäwinak	-9443
hech	-9444
jjan	-9445
▁crí	-9446
▁anac	-9447
▁jaqh	-9448
▁octa	-9449
amanïp	-9450
ïyätwa	-9451
▁altor	-9452
▁llaga	-9453
▁mirra	-9454
▁perez	-9455
▁ricos	-9456
▁rimón	-9457
asipkta	-9458
assmawa	-9459
awjaruw	-9460
▁jacobo	-9461
▁libres	-9462
▁luqxat	-9463
▁munkti	-9464
▁predic	-9465
▁seguro	-9466
▁chicach	-9467
▁churita	-9468
▁reunido	-9469
anacamjja	-9470
anakapasa	-9471
añapäkiti	-9472
▁arrepien	-9473
▁cinturón	-9474
▁cuttayan	-9475
▁granonac	-9476
▁hermanas	-9477
▁malquías	-9478
▁sarañäni	-9479
▁discípulo	-9480
▁jacobosti	-9481
▁sepultado	-9482
▁uñtatänwa	-9483
▁lurapjjäta	-9484
▁purificado	-9485
baj	-9486
sum	-9487
▁jec	-9488
ayita	-9489
estos	-9490
▁alek	-9491
▁logr	-9492
cätati	-9493
tapxam	-9494
unakax	-9495
▁aplas	-9496
▁digas	-9497
▁discu	-9498
▁jabes	-9499
▁jikis	-9500
anacsti	-9501
camajja	-9502
▁abdías	-9503
▁carpar	-9504
▁churam	-9505
▁elimin	-9506
▁noches	-9507
▁nuevas	-9508
▁puedan	-9509
▁despeda	-9510
▁elegido	-9511
▁mayordo	-9512
▁ukampix	-9513
▁umampiw	-9514
▁wilampi	-9515
▁arunakam	-9516
▁khithank	-9517
▁soberbia	-9518
▁teniendo	-9519
▁thiyaruw	-9520
▁juparakiw	-9521
▁abrahamajj	-9522
▁jutapjjäna	-9523
▁kipkarakiw	-9524
▁marcarusti	-9525
▁qhipürusti	-9526
asipcaquïnwa	-9527
▁abandonaron	-9528
▁abrahamasti	-9529
▁colerasiñajj	-9530
▁muspharkañanak	-9531
asipjjañapataqui	-9532
gada	-9533
inan	-9534
iosa	-9535
judá	-9536
zaba	-9537
▁caí	-9538
▁rib	-9539
anixa	-9540
untwa	-9541
▁zera	-9542
apisiy	-9543
arukiw	-9544
▁chivo	-9545
▁excep	-9546
▁higos	-9547
▁wilap	-9548
inación	-9549
▁alegre	-9550
▁ayudar	-9551
▁liwirt	-9552
▁octavo	-9553
▁reserv	-9554
▁verlos	-9555
▁viñedo	-9556
irinakat	-9557
▁hierrot	-9558
▁jupampï	-9559
▁plantas	-9560
▁suceder	-9561
añataquiw	-9562
▁aquellas	-9563
▁callenac	-9564
▁chikasti	-9565
▁isthapiy	-9566
▁uñisirip	-9567
▁faraonajj	-9568
▁jacobusti	-9569
▁uqhamarusa	-9570
▁yuspagarañ	-9571
apjjaraquiwa	-9572
▁amparapampi	-9573
▁jupanakaruw	-9574
▁provisiones	-9575
▁moisesampiru	-9576
▁yatiyapjjäna	-9577
▁luratanakapax	-9578
ice	-9579
álv	-9580
akis	-9581
ense	-9582
▁vis	-9583
alpun	-9584
atama	-9585
masti	-9586
▁cuál	-9587
cuánto	-9588
ktasti	-9589
éndose	-9590
▁débil	-9591
▁insol	-9592
▁jiwir	-9593
▁lloró	-9594
irjamäp	-9595
▁aparta	-9596
▁askïki	-9597
▁cierta	-9598
▁desped	-9599
▁juanan	-9600
▁munkta	-9601
▁sarvia	-9602
▁utjiri	-9603
anakaman	-9604
▁amparam	-9605
▁amtasim	-9606
▁chekata	-9607
▁compren	-9608
▁librará	-9609
▁llegaba	-9610
▁llenado	-9611
▁perdido	-9612
▁salomon	-9613
▁uñjiriw	-9614
▁guardado	-9615
▁jawsthap	-9616
▁jikxatäna	-9617
▁jiwasanak	-9618
▁utjkaniti	-9619
▁churäwinak	-9620
▁jupanacamp	-9621
▁markarusti	-9622
▁santuarios	-9623
▁warmipampi	-9624
▁munasiñampi	-9625
▁jakenacarusa	-9626
▁sarjjapjjäna	-9627
▁tantachasïwi	-9628
toda	-9629
▁pak	-9630
▁rem	-9631
arint	-9632
cunsa	-9633
▁apol	-9634
▁bela	-9635
▁dame	-9636
▁edén	-9637
wayäna	-9638
ándolo	-9639
▁celos	-9640
▁chill	-9641
▁cutiw	-9642
▁daban	-9643
▁parto	-9644
▁qutan	-9645
▁ruido	-9646
asiniwa	-9647
aspasti	-9648
atäquis	-9649
▁arsura	-9650
▁awatiñ	-9651
▁creído	-9652
▁pedrox	-9653
▁salter	-9654
araquiti	-9655
▁malhech	-9656
▁repente	-9657
▁tazones	-9658
▁tomarás	-9659
▁uraqtix	-9660
quiristti	-9661
atäñataqui	-9662
▁numerosos	-9663
▁oraciones	-9664
▁tokenquiri	-9665
▁filisteonac	-9666
▁jilïripasti	-9667
nuc	-9668
temp	-9669
kawkh	-9670
teras	-9671
▁fosa	-9672
▁lajj	-9673
▁sapk	-9674
quitas	-9675
ïskiwa	-9676
▁atrap	-9677
▁falso	-9678
▁mayat	-9679
▁purac	-9680
▁segur	-9681
▁vayas	-9682
▁jakäna	-9683
▁kutsuy	-9684
▁luräwi	-9685
▁virgen	-9686
▁descans	-9687
▁khurkat	-9688
▁yokapaw	-9689
▁combatir	-9690
▁desnudez	-9691
▁ukhamawa	-9692
▁uqhamjja	-9693
▁ovejanaka	-9694
▁recibirán	-9695
▁reyinakap	-9696
▁correspond	-9697
▁injusticia	-9698
▁protección	-9699
▁orakenquiri	-9700
▁sumankthapiñ	-9701
bro	-9702
sup	-9703
üri	-9704
▁cá	-9705
ürut	-9706
▁bol	-9707
▁flu	-9708
uelve	-9709
▁achu	-9710
▁acsa	-9711
▁umax	-9712
inadab	-9713
janiwa	-9714
▁actúa	-9715
▁debía	-9716
▁jarar	-9717
▁mäkiw	-9718
apcätam	-9719
urakïna	-9720
zaradán	-9721
▁cumbre	-9722
▁esquin	-9723
▁joyadá	-9724
▁ofrece	-9725
▁qullut	-9726
▁urojja	-9727
▁apnakañ	-9728
▁comprom	-9729
▁librado	-9730
▁regocij	-9731
▁saraqan	-9732
▁sutipar	-9733
▁waynajj	-9734
arakïniwa	-9735
asipjjäta	-9736
▁apanirap	-9737
▁impureza	-9738
▁janipuni	-9739
▁juchapat	-9740
▁marcapan	-9741
▁ofrecido	-9742
▁perfumes	-9743
jjaraquiwa	-9744
▁pampankir	-9745
jjaraquïnwa	-9746
▁cunürutejj	-9747
▁reconstruy	-9748
lad	-9749
txa	-9750
aría	-9751
guir	-9752
inuc	-9753
▁inc	-9754
▁ore	-9755
radas	-9756
unjañ	-9757
▁bras	-9758
▁echa	-9759
▁masa	-9760
▁nave	-9761
▁oiga	-9762
▁plac	-9763
▁sari	-9764
▁sorp	-9765
▁toca	-9766
unakan	-9767
▁isimp	-9768
▁masit	-9769
amataki	-9770
▁markaw	-9771
▁qhuchh	-9772
▁decreto	-9773
▁mayisiñ	-9774
▁acostado	-9775
▁eufrates	-9776
▁faraonax	-9777
▁hilquías	-9778
▁jacapqui	-9779
▁mediodía	-9780
▁saractwa	-9781
▁aaronasti	-9782
▁perseguir	-9783
▁rechazado	-9784
▁enseñanzas	-9785
▁mayninacajj	-9786
▁mayninacasti	-9787
eel	-9788
fet	-9789
cure	-9790
▁dif	-9791
▁gog	-9792
▁afil	-9793
▁bajó	-9794
▁cist	-9795
▁olas	-9796
▁plen	-9797
▁thal	-9798
stajja	-9799
▁arder	-9800
▁azote	-9801
▁cruel	-9802
▁inach	-9803
▁pensó	-9804
▁reedi	-9805
▁verme	-9806
arakpan	-9807
asipkak	-9808
▁acostó	-9809
▁humana	-9810
▁necios	-9811
▁uqhamä	-9812
▁amarías	-9813
▁celesti	-9814
▁guardar	-9815
▁jutapjj	-9816
▁mantani	-9817
▁purisin	-9818
apxatayna	-9819
araquïtam	-9820
▁quemadas	-9821
▁taykapax	-9822
▁templona	-9823
▁apapjjäna	-9824
▁irpirinak	-9825
▁purificar	-9826
▁enfermedades	-9827
▁sacrificionaca	-9828
jor	-9829
▁ai	-9830
aruy	-9831
chiq	-9832
dijo	-9833
ünwa	-9834
▁gar	-9835
askän	-9836
iéndo	-9837
▁jope	-9838
▁laka	-9839
▁llaw	-9840
antata	-9841
arañap	-9842
tantes	-9843
▁amena	-9844
▁atacó	-9845
▁burla	-9846
▁canas	-9847
▁dando	-9848
▁katar	-9849
▁recab	-9850
▁sexto	-9851
▁sitio	-9852
awayäna	-9853
kawkink	-9854
ïpansti	-9855
▁arumax	-9856
▁chhakt	-9857
▁muncta	-9858
▁ungido	-9859
eramente	-9860
▁arumajj	-9861
▁cercano	-9862
▁isimpiw	-9863
▁palmera	-9864
▁phuqsus	-9865
▁salvará	-9866
anacanjja	-9867
▁atipjäna	-9868
▁matanías	-9869
▁mostraré	-9870
▁salvajes	-9871
▁sartasim	-9872
▁ukanakaw	-9873
▁ventanas	-9874
▁arunacjja	-9875
▁jaqinakas	-9876
▁uywatasti	-9877
▁uñjapxäna	-9878
caraquiniti	-9879
▁arunakapar	-9880
▁resucitado	-9881
▁chicaraquiw	-9882
cé	-9883
cao	-9884
jal	-9885
nin	-9886
▁má	-9887
isax	-9888
asïwi	-9889
atrio	-9890
icias	-9891
juman	-9892
▁chij	-9893
▁elif	-9894
▁kark	-9895
▁merc	-9896
▁plom	-9897
▁suya	-9898
▁uñji	-9899
▁uñjk	-9900
circun	-9901
ompiru	-9902
smajja	-9903
▁artes	-9904
▁desci	-9905
▁diosa	-9906
▁dígan	-9907
▁libra	-9908
▁muruq	-9909
▁necao	-9910
▁reuel	-9911
▁sarai	-9912
▁enviar	-9913
▁hermón	-9914
▁jacasc	-9915
▁marcos	-9916
▁romano	-9917
▁saduce	-9918
atanacap	-9919
nanacajj	-9920
▁aynacha	-9921
▁cabello	-9922
▁lámpara	-9923
▁yatirak	-9924
askakïnwa	-9925
▁amparajj	-9926
▁glorioso	-9927
▁guardias	-9928
▁palmeras	-9929
▁phisqani	-9930
▁sapaquiw	-9931
▁awquejjan	-9932
▁compatrio	-9933
▁diosapajj	-9934
▁jichhürun	-9935
▁jichhürux	-9936
kunapachkam	-9937
▁animalanak	-9938
▁escucharon	-9939
▁pertenecen	-9940
▁yatipjjani	-9941
▁iyawsirinak	-9942
dó	-9943
ime	-9944
iro	-9945
caré	-9946
kisa	-9947
ámpa	-9948
ctjja	-9949
▁avis	-9950
▁blas	-9951
▁siti	-9952
ajjwañ	-9953
jearim	-9954
▁acabó	-9955
▁acjja	-9956
▁echar	-9957
▁exper	-9958
▁ninaw	-9959
▁salen	-9960
▁tumpt	-9961
▁viejo	-9962
▁yatit	-9963
añamawa	-9964
xapxiwa	-9965
▁amuyas	-9966
▁comete	-9967
▁conten	-9968
▁imäwip	-9969
▁jaysañ	-9970
▁utasti	-9971
▁utjkän	-9972
▁wiphal	-9973
xarakïna	-9974
▁espalda	-9975
▁inampis	-9976
▁jakeruw	-9977
▁jilïrit	-9978
▁relámpa	-9979
apcatayna	-9980
▁amargura	-9981
▁destruye	-9982
▁levantar	-9983
▁llamaron	-9984
▁primeras	-9985
▁sentados	-9986
▁usuchjat	-9987
tañapataki	-9988
▁demasiado	-9989
▁jumataqui	-9990
▁marcaparu	-9991
▁productos	-9992
▁chiqanakan	-9993
▁sepultaron	-9994
▁uñjaractwa	-9995
▁wawanacapa	-9996
▁judionacajj	-9997
▁wawachasïna	-9998
vó	-9999
drá	-10000
bina	-10001
iten	-10002
jame	-10003
uchi	-10004
urus	-10005
utaw	-10006
uway	-10007
▁apa	-10008
▁arf	-10009
▁efr	-10010
▁ikt	-10011
▁nie	-10012
▁ráp	-10013
▁tej	-10014
antam	-10015
ganlo	-10016
jamax	-10017
jumaw	-10018
▁alir	-10019
▁espe	-10020
▁fies	-10021
▁etern	-10022
▁putut	-10023
ecieron	-10024
▁amuyup	-10025
▁barcos	-10026
▁ceniza	-10027
▁fortal	-10028
▁kimsïr	-10029
▁warmis	-10030
asiñampi	-10031
▁debemos	-10032
▁hablaré	-10033
▁jumajja	-10034
▁mirando	-10035
▁nayatix	-10036
▁noventa	-10037
▁quedaba	-10038
▁quemará	-10039
▁riqueza	-10040
▁uñstani	-10041
▁vuelven	-10042
▁buscando	-10043
▁edificar	-10044
▁extermin	-10045
▁jupapach	-10046
▁lurapxam	-10047
▁recibirá	-10048
▁wasararu	-10049
atäpxaniwa	-10050
cañcamasti	-10051
▁jilanacap	-10052
▁jiwatanak	-10053
▁tranquilo	-10054
▁uñjirinak	-10055
▁wiñayatac	-10056
▁esclavitud	-10057
▁judionakax	-10058
▁judiöpquis	-10059
▁leyinacajj	-10060
▁permanente	-10061
cjjapjjaniti	-10062
▁descubierto	-10063
▁luqtañataki	-10064
▁prisioneros	-10065
▁uñjasipxäna	-10066
▁akapachankir	-10067
▁churaraquïna	-10068
▁nayrakataparuw	-10069
ól	-10070
aniw	-10071
ecio	-10072
▁net	-10073
▁oró	-10074
▁seb	-10075
ampiy	-10076
calón	-10077
jamwa	-10078
ochur	-10079
rejja	-10080
zabad	-10081
▁diré	-10082
▁idol	-10083
▁paga	-10084
▁päch	-10085
ayänwa	-10086
cunats	-10087
▁hable	-10088
▁plaza	-10089
▁ponen	-10090
apjjtam	-10091
eciocho	-10092
▁corrió	-10093
▁cortar	-10094
▁cupëjj	-10095
▁décima	-10096
▁hablen	-10097
▁luriri	-10098
▁presos	-10099
▁puncun	-10100
▁raíces	-10101
▁sacado	-10102
▁sarxam	-10103
▁sincer	-10104
▁tokena	-10105
▁venían	-10106
äpjjtawa	-10107
▁ascalón	-10108
▁jawiran	-10109
▁marcjja	-10110
▁parecer	-10111
▁asquïqui	-10112
▁churistu	-10113
▁confiado	-10114
▁descanso	-10115
▁isthapit	-10116
▁príncipe	-10117
▁qhitanuc	-10118
▁taripäwi	-10119
▁abundante	-10120
▁chekanjja	-10121
▁dieciocho	-10122
▁jacapcäna	-10123
upa	-10124
▁bi	-10125
antï	-10126
ices	-10127
omen	-10128
ítas	-10129
anisa	-10130
arias	-10131
imaas	-10132
▁bote	-10133
▁llix	-10134
▁munk	-10135
▁opon	-10136
▁sube	-10137
▁utat	-10138
asiñax	-10139
atorio	-10140
äkitix	-10141
▁cades	-10142
▁dedán	-10143
▁hojas	-10144
▁jaych	-10145
▁lista	-10146
▁alboro	-10147
▁oscure	-10148
▁yanapa	-10149
▁jawirar	-10150
▁meguido	-10151
▁munkiti	-10152
▁ukawjat	-10153
▁uywanac	-10154
▁wawasti	-10155
ampiraqui	-10156
ariamente	-10157
▁ayudante	-10158
▁contamin	-10159
▁llamados	-10160
▁llevarán	-10161
▁markampi	-10162
▁maynisti	-10163
▁olvidado	-10164
▁takpacha	-10165
▁trabajos	-10166
▁viviendo	-10167
▁habitaron	-10168
▁propósito	-10169
▁qullqimpi	-10170
▁realmente	-10171
apxañapatak	-10172
▁liberación	-10173
▁resplandor	-10174
▁avergonzado	-10175
▁wawanakapat	-10176
▁axsarapxamti	-10177
?'.	-10178
isé	-10179
ukh	-10180
▁ux	-10181
acas	-10182
icam	-10183
inqa	-10184
rejj	-10185
vive	-10186
ayata	-10187
chïna	-10188
susin	-10189
▁akan	-10190
▁jikx	-10191
▁kayu	-10192
▁oren	-10193
▁tuya	-10194
▁wark	-10195
inakat	-10196
▁actos	-10197
▁temán	-10198
▁ukxat	-10199
asipcta	-10200
janipun	-10201
▁alados	-10202
▁caigan	-10203
▁jutant	-10204
▁acostum	-10205
▁angelax	-10206
▁cumplió	-10207
▁seguido	-10208
▁yatiyañ	-10209
amapampiw	-10210
▁animalan	-10211
▁decirles	-10212
▁lantisti	-10213
▁munquiti	-10214
▁nayatejj	-10215
▁traicion	-10216
▁ucaraqui	-10217
irinakampi	-10218
▁distancia	-10219
▁reyinakax	-10220
▁amparaparu	-10221
▁markanakaw	-10222
▁suficiente	-10223
▁jupataquejj	-10224
▁nuwasiñatak	-10225
▁tantachthap	-10226
▁yatiyäwinac	-10227
▁israelanquir	-10228
ees	-10229
iyj	-10230
sin	-10231
tán	-10232
amuy	-10233
ibeá	-10234
ikip	-10235
▁ges	-10236
▁lom	-10237
▁cams	-10238
▁seba	-10239
▁uñaq	-10240
▁amram	-10241
▁arabá	-10242
▁deter	-10243
▁feliz	-10244
▁triun	-10245
▁yatir	-10246
ankänwa	-10247
▁askiwa	-10248
▁confes	-10249
▁crecer	-10250
▁cubrió	-10251
▁explor	-10252
▁luchar	-10253
▁nobles	-10254
▁separa	-10255
▁uñjäta	-10256
apxaniwa	-10257
▁amantes	-10258
▁antutañ	-10259
▁capitán	-10260
▁jayaruw	-10261
▁lurapxi	-10262
▁tempran	-10263
▁ukampiw	-10264
▁vinompi	-10265
▁chicasti	-10266
▁llorando	-10267
▁marcajja	-10268
▁mortales	-10269
kunjämarak	-10270
▁descansar	-10271
▁jiwasanac	-10272
▁utjcaniti	-10273
▁utjarakïna	-10274
▁considerado	-10275
▁jiwasanakax	-10276
▁jumataquejj	-10277
▁panpachaniw	-10278
▁wiñayataquiw	-10279
cht	-10280
ion	-10281
iot	-10282
nán	-10283
apak	-10284
aram	-10285
mark	-10286
usto	-10287
ñäni	-10288
▁nas	-10289
▁nim	-10290
▁súp	-10291
inada	-10292
itjja	-10293
▁amut	-10294
▁juro	-10295
▁mate	-10296
▁mues	-10297
▁nebo	-10298
▁peso	-10299
▁sebá	-10300
▁tapa	-10301
▁tukt	-10302
▁vent	-10303
anisti	-10304
apquit	-10305
arisiñ	-10306
▁mäqui	-10307
▁uñnak	-10308
akitaya	-10309
amatsti	-10310
ipjjsma	-10311
ipxamti	-10312
▁bestia	-10313
▁colocó	-10314
▁elcana	-10315
▁estrem	-10316
▁jaltjj	-10317
▁munapc	-10318
▁pelear	-10319
▁tunkat	-10320
▁utjitu	-10321
apjjatam	-10322
quipansa	-10323
▁derrotó	-10324
▁esposas	-10325
▁fariseo	-10326
▁investi	-10327
▁torcido	-10328
ukhamasti	-10329
▁adoraron	-10330
▁llevando	-10331
▁mayniruw	-10332
▁obedecen	-10333
▁quimsani	-10334
anquirinac	-10335
▁costumbre	-10336
▁jicjjatap	-10337
▁jiwatanac	-10338
▁mutuyäwip	-10339
▁qillqatap	-10340
▁urunacajj	-10341
▁encargados	-10342
▁marcanacap	-10343
▁sacerdocio	-10344
▁awkinakapan	-10345
▁destruyeron	-10346
▁ajjsarapjjamti	-10347
amo	-10348
sol	-10349
tel	-10350
uph	-10351
anki	-10352
marc	-10353
▁amu	-10354
▁vís	-10355
akkat	-10356
arías	-10357
endan	-10358
jeran	-10359
kxiti	-10360
tanxa	-10361
vamos	-10362
ätjja	-10363
▁cuad	-10364
▁ezer	-10365
▁sark	-10366
asisax	-10367
añaruw	-10368
erinac	-10369
jamajj	-10370
▁achur	-10371
▁escud	-10372
▁festo	-10373
▁peces	-10374
▁tiemb	-10375
▁aconse	-10376
▁adonde	-10377
▁guibeá	-10378
▁huerto	-10379
▁iquint	-10380
▁jakkir	-10381
▁mistur	-10382
▁sorteo	-10383
▁tocado	-10384
▁yatïna	-10385
▁águila	-10386
inakasti	-10387
ucampisa	-10388
▁chekach	-10389
▁llätunk	-10390
▁poderío	-10391
▁qhititï	-10392
▁sarakan	-10393
▁wachuqa	-10394
▁yänakax	-10395
apjjänjja	-10396
atäkaniti	-10397
▁converti	-10398
▁kipkarak	-10399
▁recubrió	-10400
▁templopa	-10401
▁ucanacar	-10402
▁kunürutix	-10403
▁levantaré	-10404
▁qhiparäna	-10405
cunapachcam	-10406
▁uraqpachan	-10407
▁malhechores	-10408
▁sufrimiento	-10409
▁uccañcamasti	-10410
▁yatichirinac	-10411
ím	-10412
teg	-10413
cará	-10414
icri	-10415
vete	-10416
▁jit	-10417
amakt	-10418
ición	-10419
ienta	-10420
intat	-10421
ueras	-10422
▁amén	-10423
▁omri	-10424
▁rued	-10425
▁uñjt	-10426
ajquir	-10427
apatwa	-10428
asxäna	-10429
cuándo	-10430
iertas	-10431
iraquï	-10432
onakat	-10433
quisti	-10434
éntate	-10435
▁distr	-10436
▁gosén	-10437
▁katus	-10438
▁malig	-10439
atäxiwa	-10440
▁correr	-10441
▁despla	-10442
▁juchsa	-10443
▁jaljtay	-10444
▁jiwarat	-10445
▁nakhant	-10446
▁quipcaw	-10447
▁rescate	-10448
▁ukarjam	-10449
ipunïniwa	-10450
▁estatuto	-10451
▁lurañajj	-10452
▁ucqhacama	-10453
▁diosamajja	-10454
▁dirigentes	-10455
▁menospreci	-10456
▁alrededores	-10457
▁jaqinakampix	-10458
▁jumanakatakix	-10459
hud	-10460
paw	-10461
anse	-10462
ondo	-10463
riel	-10464
ätaw	-10465
catay	-10466
ganse	-10467
lidad	-10468
▁odio	-10469
▁olla	-10470
▁reca	-10471
cuatro	-10472
ijunac	-10473
irutix	-10474
tencia	-10475
▁fondo	-10476
▁presa	-10477
▁retir	-10478
▁uñxat	-10479
arapita	-10480
▁canten	-10481
▁horror	-10482
▁kunakï	-10483
▁lanzas	-10484
▁limpia	-10485
▁materi	-10486
▁orakem	-10487
▁ucqhaw	-10488
▁actuado	-10489
▁atraves	-10490
▁bendiga	-10491
▁esteban	-10492
▁jachäna	-10493
▁juchani	-10494
▁profund	-10495
▁adivinos	-10496
▁aminadab	-10497
▁lurasini	-10498
▁maranaca	-10499
▁warmipan	-10500
▁yatichañ	-10501
ataquïniwa	-10502
añapäquiti	-10503
▁centinela	-10504
▁corriendo	-10505
▁lurapjjam	-10506
▁paqallqun	-10507
▁marcanacar	-10508
▁qullunakan	-10509
▁amparanakap	-10510
▁lurañanakap	-10511
▁yanapirinac	-10512
▁soldadonakax	-10513
▁veinticuatro	-10514
▁israelitanacar	-10515
ayk	-10516
uñj	-10517
zco	-10518
▁pá	-10519
▁ví	-10520
deme	-10521
äxat	-10522
▁aná	-10523
▁dor	-10524
askak	-10525
awayi	-10526
garán	-10527
▁arkt	-10528
▁casc	-10529
▁roma	-10530
▁sama	-10531
▁utjk	-10532
asiski	-10533
asquir	-10534
atasti	-10535
irïtap	-10536
▁apäna	-10537
▁jazer	-10538
▁nacer	-10539
▁qatat	-10540
▁rasgó	-10541
▁tuyos	-10542
aracsma	-10543
▁jaltan	-10544
▁ordena	-10545
▁perros	-10546
▁rendir	-10547
▁suegro	-10548
▁traves	-10549
▁acatjam	-10550
▁arscäna	-10551
▁carreta	-10552
▁derramó	-10553
▁hebreos	-10554
▁jakempi	-10555
▁oracion	-10556
▁piensan	-10557
▁ucacama	-10558
▁alcanzar	-10559
▁arunacam	-10560
▁hallaron	-10561
▁kuttaway	-10562
▁lurapjje	-10563
▁mandaron	-10564
▁soportar	-10565
▁transpor	-10566
jamaraquiw	-10567
▁concubina	-10568
▁warmimpiw	-10569
▁warmirojj	-10570
▁ukanakänwa	-10571
▁wawachasir	-10572
▁jupanakkamaw	-10573
▁jerusalenaruw	-10574
war	-10575
ayam	-10576
está	-10577
jjän	-10578
niwa	-10579
ascjj	-10580
iptay	-10581
tores	-10582
uesto	-10583
▁caud	-10584
▁golp	-10585
▁hete	-10586
▁layq	-10587
▁plaz	-10588
▁teco	-10589
anïtap	-10590
dalias	-10591
dieron	-10592
ëjjäna	-10593
▁arpas	-10594
▁cuant	-10595
▁esqui	-10596
▁flujo	-10597
▁pharj	-10598
▁thaya	-10599
asipkän	-10600
ayasïna	-10601
citäpan	-10602
cäyätti	-10603
onacana	-10604
äyätaxa	-10605
ñapatak	-10606
▁arcapa	-10607
▁azufre	-10608
▁cántar	-10609
▁embara	-10610
▁finees	-10611
▁habrán	-10612
▁honrar	-10613
▁jaltay	-10614
▁matará	-10615
▁preval	-10616
▁reglas	-10617
anacanwa	-10618
anacapwa	-10619
anakamar	-10620
▁estatua	-10621
▁fiestas	-10622
▁phuqhañ	-10623
▁siembra	-10624
▁tropiez	-10625
▁arumanth	-10626
▁incircun	-10627
▁jumampïs	-10628
▁markapat	-10629
▁toketsti	-10630
▁comprender	-10631
▁lurarakïna	-10632
▁maynïristi	-10633
▁bienaventura	-10634
▁markanakarux	-10635
amén	-10636
anas	-10637
apän	-10638
ayna	-10639
ficó	-10640
ueve	-10641
uniw	-10642
▁jat	-10643
▁llé	-10644
▁ukh	-10645
ayäta	-10646
nadie	-10647
▁armt	-10648
▁asus	-10649
▁elia	-10650
▁sani	-10651
▁saul	-10652
▁thac	-10653
▁vana	-10654
añanac	-10655
gancia	-10656
grense	-10657
árselo	-10658
▁cuero	-10659
▁desen	-10660
▁reali	-10661
ñataqui	-10662
▁cartas	-10663
▁cunatï	-10664
▁efecto	-10665
▁expres	-10666
▁himnos	-10667
▁jaqkat	-10668
▁naamán	-10669
▁quizás	-10670
▁rebeló	-10671
▁utjasc	-10672
anakaxsa	-10673
▁alisnuk	-10674
▁inmundo	-10675
▁jaqïnwa	-10676
▁kollket	-10677
▁peligro	-10678
▁quqanak	-10679
▁satayna	-10680
▁sobrino	-10681
apkistati	-10682
▁afligido	-10683
▁humildes	-10684
▁parábola	-10685
▁persever	-10686
▁turbante	-10687
▁escritura	-10688
▁humanidad	-10689
▁diosanakap	-10690
▁mayninakax	-10691
▁ordenanzas	-10692
▁churapjjäna	-10693
▁desterrados	-10694
▁wawanacapajja	-10695
▁interpretación	-10696
ex	-10697
hay	-10698
moab	-10699
ucat	-10700
▁eun	-10701
▁pap	-10702
▁ton	-10703
▁ahim	-10704
▁mata	-10705
▁oton	-10706
▁pare	-10707
▁pobl	-10708
▁veía	-10709
▁yapt	-10710
ayamos	-10711
tiendo	-10712
uraway	-10713
▁abiam	-10714
▁baasa	-10715
▁creer	-10716
▁desvi	-10717
▁impon	-10718
▁jafet	-10719
▁kawki	-10720
▁muxsa	-10721
▁odian	-10722
▁sobor	-10723
▁wawar	-10724
asiñapa	-10725
ártense	-10726
▁amayap	-10727
▁arsüwi	-10728
▁askixa	-10729
▁expuls	-10730
▁irptan	-10731
▁jumasa	-10732
▁podido	-10733
▁pusïri	-10734
▁tortas	-10735
▁verano	-10736
atanacam	-10737
▁busquen	-10738
▁envidia	-10739
▁maasías	-10740
▁matanza	-10741
▁otoniel	-10742
▁regalos	-10743
▁tuqinuq	-10744
anacansti	-10745
ayapjjäna	-10746
▁esquinas	-10747
▁maynikam	-10748
▁ovejampi	-10749
▁saraktwa	-10750
▁willjtat	-10751
iñapataqui	-10752
▁calamidad	-10753
▁impuestos	-10754
▁isaacasti	-10755
▁jutapxäna	-10756
▁munapxäna	-10757
▁parlapjje	-10758
▁patanakan	-10759
▁sinagogas	-10760
▁trabajado	-10761
▁uñjasinxa	-10762
▁chekapäqui	-10763
▁jiwarapxani	-10764
asipxañapataki	-10765
ji	-10766
zal	-10767
irit	-10768
élix	-10769
▁hag	-10770
▁hir	-10771
▁luk	-10772
▁waq	-10773
▁yes	-10774
jacob	-10775
nales	-10776
supjj	-10777
▁apag	-10778
▁ater	-10779
▁ayqu	-10780
▁cans	-10781
▁chim	-10782
▁nove	-10783
isajja	-10784
▁blasf	-10785
▁catus	-10786
▁común	-10787
▁escar	-10788
▁mandé	-10789
▁recos	-10790
▁simey	-10791
▁taypi	-10792
▁tirsa	-10793
▁umajj	-10794
▁vícti	-10795
ayasita	-10796
iristti	-10797
▁asirio	-10798
▁corren	-10799
▁griego	-10800
▁homici	-10801
▁micaía	-10802
▁qhanak	-10803
▁takeni	-10804
▁tucjat	-10805
▁ukataq	-10806
▁uñakip	-10807
▁warmiw	-10808
ataynawa	-10809
ïpjjänwa	-10810
▁convier	-10811
▁cuerdas	-10812
▁ganchos	-10813
▁lurtaxa	-10814
▁mostrar	-10815
▁ofrecen	-10816
▁pecador	-10817
▁sarjjam	-10818
atäpxänwa	-10819
cisamente	-10820
▁anunciar	-10821
▁cosechas	-10822
▁desolada	-10823
▁encendió	-10824
▁escuchan	-10825
▁temprano	-10826
anacajjajj	-10827
apamppacha	-10828
▁ajjsariri	-10829
▁chekatjja	-10830
▁diosamaru	-10831
▁orakerojj	-10832
▁pilatosti	-10833
▁anchorusti	-10834
▁entregaron	-10835
▁ucanacatsa	-10836
▁campamentos	-10837
▁centimetroni	-10838
mu	-10839
nok	-10840
▁ta	-10841
arat	-10842
chïn	-10843
cuns	-10844
dame	-10845
fall	-10846
roso	-10847
tama	-10848
▁ave	-10849
▁llo	-10850
▁zif	-10851
ental	-10852
iséis	-10853
menes	-10854
quita	-10855
ticos	-10856
▁duer	-10857
jjatay	-10858
▁bella	-10859
▁kupïx	-10860
▁pasan	-10861
apunïwa	-10862
entaron	-10863
unjataw	-10864
▁aljant	-10865
▁compra	-10866
▁creado	-10867
▁herido	-10868
▁horasa	-10869
▁indign	-10870
▁jaqjam	-10871
▁largor	-10872
▁lleven	-10873
▁muncti	-10874
asirinac	-10875
▁comerás	-10876
▁desfall	-10877
▁dijiste	-10878
▁jiwasax	-10879
▁lokjjat	-10880
▁maranit	-10881
▁sutixar	-10882
▁traigan	-10883
▁cisterna	-10884
▁crímenes	-10885
▁eliasajj	-10886
▁entrarán	-10887
▁jumanaca	-10888
▁katuqäna	-10889
▁llätunka	-10890
▁mayisita	-10891
▁regresar	-10892
▁sefatías	-10893
▁utjatapa	-10894
▁dieciséis	-10895
▁invitados	-10896
▁jiwatapat	-10897
▁orakenaca	-10898
▁sepulcros	-10899
atarakïniwa	-10900
▁arunakapax	-10901
▁juntamente	-10902
▁marcanacat	-10903
▁phuqhantat	-10904
▁jacañataqui	-10905
▁jilïripänwa	-10906
▁respondiendo	-10907
▁sataraquïnwa	-10908
▁jerusalenanquir	-10909
acá	-10910
dig	-10911
äch	-10912
íen	-10913
▁sá	-10914
axar	-10915
bilo	-10916
supx	-10917
wawa	-10918
▁ita	-10919
▁puñ	-10920
▁siq	-10921
▁zaf	-10922
accat	-10923
adura	-10924
añaru	-10925
irixa	-10926
tamxa	-10927
zaban	-10928
ïtati	-10929
▁barz	-10930
▁caña	-10931
▁crim	-10932
▁etío	-10933
▁iyaw	-10934
▁retr	-10935
▁atend	-10936
▁félix	-10937
▁hablé	-10938
▁jakes	-10939
▁jalir	-10940
▁khana	-10941
▁lokhe	-10942
onacasa	-10943
tasinwa	-10944
ukhamax	-10945
▁honran	-10946
▁júbilo	-10947
▁llakit	-10948
▁monten	-10949
▁pachan	-10950
äyätajja	-10951
▁chikach	-10952
▁chiqaru	-10953
▁combati	-10954
▁juicios	-10955
▁kalanac	-10956
▁luramti	-10957
▁señores	-10958
atäpjjewa	-10959
▁llenaron	-10960
▁muchacha	-10961
▁perpetuo	-10962
▁acanacjja	-10963
▁jumarusti	-10964
▁jupatakix	-10965
▁jupataqui	-10966
▁moisesaru	-10967
▁munasiñap	-10968
▁katuntasin	-10969
▁nayraqatar	-10970
▁sarxapxäna	-10971
▁tatitütaxa	-10972
▁apostolonac	-10973
▁rápidamente	-10974
▁salomonasti	-10975
▁kamachinakap	-10976
▁cawqhanccäntejj	-10977
vil	-10978
▁éx	-10979
eías	-10980
idor	-10981
qull	-10982
rant	-10983
▁wat	-10984
asaxa	-10985
awjar	-10986
yätwa	-10987
▁durm	-10988
▁enoc	-10989
▁exig	-10990
▁prud	-10991
▁sans	-10992
▁simí	-10993
▁suxt	-10994
▁tall	-10995
▁vuél	-10996
▁wañt	-10997
inqach	-10998
pasado	-10999
äyäsma	-11000
▁arrog	-11001
▁infam	-11002
▁qutar	-11003
▁siega	-11004
▁sirva	-11005
usieron	-11006
ïñapawa	-11007
▁ajayuw	-11008
▁alejan	-11009
▁blanca	-11010
▁futuro	-11011
▁jezrel	-11012
▁llegan	-11013
▁markas	-11014
▁mistus	-11015
▁moabit	-11016
▁thayaw	-11017
▁timnat	-11018
xarakini	-11019
▁arsutax	-11020
▁estarás	-11021
▁jedaías	-11022
▁mayores	-11023
▁morirás	-11024
▁ninasti	-11025
▁qunuñap	-11026
▁seguían	-11027
▁sentido	-11028
▁seremos	-11029
▁terremo	-11030
atäxaniwa	-11031
jjapjjewa	-11032
▁apnaqkän	-11033
▁jiwasajj	-11034
▁juchanac	-11035
▁maysaruw	-11036
▁pamparuw	-11037
▁sagrados	-11038
▁waynasti	-11039
araquïmawa	-11040
▁apnakcäna	-11041
▁declarará	-11042
▁nayrakata	-11043
▁uñkatasin	-11044
▁colerasïna	-11045
▁jakenacawa	-11046
▁temploparu	-11047
▁ukanakampi	-11048
▁yatipjjäta	-11049
▁abominación	-11050
▁nayrakataru	-11051
▁qalltatpach	-11052
▁qhitinacatï	-11053
▁asirianquiri	-11054
mer	-11055
orr	-11056
adar	-11057
tara	-11058
viva	-11059
▁ado	-11060
▁adv	-11061
▁ana	-11062
caquï	-11063
ezcan	-11064
ienda	-11065
▁baja	-11066
▁takt	-11067
apjjes	-11068
encias	-11069
enkach	-11070
iganme	-11071
ipasti	-11072
iyanuq	-11073
ábamos	-11074
ñapawa	-11075
▁boter	-11076
▁cuyos	-11077
▁estér	-11078
▁jurar	-11079
▁meter	-11080
▁qallu	-11081
▁qarqa	-11082
▁thuru	-11083
▁umbra	-11084
antejja	-11085
unjatäñ	-11086
▁amados	-11087
▁lurasi	-11088
▁sumawa	-11089
▁tronco	-11090
▁tucura	-11091
añanacam	-11092
jamäniwa	-11093
▁pequeña	-11094
▁quédate	-11095
▁temblar	-11096
▁thujrup	-11097
anacajjsa	-11098
anacapsti	-11099
▁apapxäna	-11100
▁esconder	-11101
▁maynirus	-11102
▁resistir	-11103
▁samaraña	-11104
jjañataqui	-11105
▁caballeri	-11106
▁jilïristi	-11107
▁jupanacaw	-11108
▁purisasti	-11109
▁sepultura	-11110
▁construido	-11111
▁orgullosos	-11112
▁paqallqüri	-11113
▁arrepientis	-11114
▁jawsayanïna	-11115
▁qalltapxäna	-11116
▁tribunquirinac	-11117
bio	-11118
soy	-11119
inom	-11120
trar	-11121
jeras	-11122
padre	-11123
▁barr	-11124
▁beor	-11125
▁lana	-11126
suyäna	-11127
ándole	-11128
▁akank	-11129
▁cayup	-11130
▁conci	-11131
▁cunan	-11132
▁datán	-11133
▁desas	-11134
▁envié	-11135
▁huido	-11136
▁karka	-11137
▁males	-11138
▁punta	-11139
▁selom	-11140
▁verás	-11141
▁betani	-11142
▁churat	-11143
▁compad	-11144
▁entero	-11145
▁estuve	-11146
▁ladrón	-11147
▁markam	-11148
▁mayakï	-11149
▁sullka	-11150
▁takxäs	-11151
▁tukuyä	-11152
▁uñjjat	-11153
äquitejj	-11154
▁algunas	-11155
▁ananucu	-11156
▁apoderó	-11157
▁catoker	-11158
▁chachap	-11159
▁confían	-11160
▁diestra	-11161
▁esperan	-11162
▁haberse	-11163
▁incluso	-11164
▁jacquir	-11165
▁jutkani	-11166
▁kellkan	-11167
▁qhurcat	-11168
▁respeto	-11169
▁truenos	-11170
▁warmisa	-11171
asisinsti	-11172
▁cunjämsa	-11173
▁devolver	-11174
▁katuntir	-11175
▁markaxar	-11176
▁pidieron	-11177
▁reyiparu	-11178
▁sirvipjj	-11179
añchapjjam	-11180
▁chekacama	-11181
▁estuviera	-11182
▁langostas	-11183
▁libropana	-11184
▁terminado	-11185
▁waliquiwa	-11186
▁churañatak	-11187
▁ukatsipana	-11188
▁warminakap	-11189
▁yatisinsti	-11190
▁kusisiñaniwa	-11191
▁persiguieron	-11192
▁ukanakarusti	-11193
▁saraqatarusti	-11194
▁jakenacaraquiw	-11195
tí	-11196
ore	-11197
ipar	-11198
jate	-11199
▁ago	-11200
▁fra	-11201
akïwa	-11202
asirï	-11203
puniw	-11204
umara	-11205
▁akar	-11206
▁arct	-11207
▁casó	-11208
▁creó	-11209
▁debo	-11210
▁husa	-11211
▁pido	-11212
▁zéra	-11213
ataquï	-11214
aunque	-11215
kayawa	-11216
▁alani	-11217
▁heber	-11218
▁jayat	-11219
▁parán	-11220
▁pasen	-11221
▁sigan	-11222
▁voces	-11223
▁zimri	-11224
apxista	-11225
asisina	-11226
tapjjam	-11227
▁caldeo	-11228
▁centur	-11229
▁jebuse	-11230
▁khanap	-11231
▁límite	-11232
▁mistuñ	-11233
▁tuküna	-11234
▁utjpan	-11235
ascaquim	-11236
xasinsti	-11237
▁bandera	-11238
▁chawlla	-11239
▁eliezer	-11240
▁janchim	-11241
▁moradas	-11242
▁toketsa	-11243
▁wawapax	-11244
uqhamasti	-11245
▁cubierto	-11246
▁ladrones	-11247
▁reunidos	-11248
▁vacanaca	-11249
▁arnaqasit	-11250
▁marcansti	-11251
▁preguntas	-11252
▁ukanakaru	-11253
▁awquejjajj	-11254
▁munasiñapax	-11255
▁precisamente	-11256
▁sufrimientos	-11257
vá	-11258
ace	-11259
amó	-11260
emot	-11261
entó	-11262
erio	-11263
quem	-11264
xtan	-11265
útil	-11266
ürux	-11267
▁faz	-11268
▁pón	-11269
atati	-11270
ecían	-11271
hemos	-11272
ipcän	-11273
jense	-11274
mento	-11275
tarlo	-11276
▁afec	-11277
▁andr	-11278
▁bere	-11279
▁chat	-11280
▁escú	-11281
▁jiph	-11282
▁laqu	-11283
▁liri	-11284
▁phaw	-11285
karaki	-11286
pachwa	-11287
▁costa	-11288
▁furia	-11289
▁grato	-11290
▁phich	-11291
▁solem	-11292
ichhill	-11293
▁arameo	-11294
▁música	-11295
▁pablon	-11296
▁sanado	-11297
▁thayan	-11298
▁urumpi	-11299
araktawa	-11300
ataquiwa	-11301
irinacan	-11302
▁absalon	-11303
▁angelap	-11304
▁confirm	-11305
▁imantas	-11306
▁takenin	-11307
▁ajitofel	-11308
▁consuelo	-11309
▁davidaru	-11310
▁dedicado	-11311
▁deshonra	-11312
▁layminac	-11313
▁netanías	-11314
▁permitió	-11315
▁apnaqxäna	-11316
▁lurañanac	-11317
▁takpachan	-11318
▁chhichhill	-11319
▁encontraba	-11320
▁habitación	-11321
▁kalltasina	-11322
irinakarusti	-11323
▁amtäwinakap	-11324
▁apnakascäna	-11325
▁jupanakampi	-11326
▁luraraquïna	-11327
▁qhathatipjj	-11328
▁juchanakapat	-11329
kki	-11330
ayin	-11331
itob	-11332
▁ceñ	-11333
amita	-11334
apxat	-11335
ataim	-11336
iqipx	-11337
nunca	-11338
ombre	-11339
pansa	-11340
umbre	-11341
untat	-11342
zadas	-11343
ïyäta	-11344
▁alar	-11345
▁desa	-11346
▁eras	-11347
▁reto	-11348
▁tome	-11349
astero	-11350
erojja	-11351
isasti	-11352
ósitos	-11353
▁ahías	-11354
▁arcan	-11355
▁halla	-11356
▁jaqis	-11357
▁líqui	-11358
▁mezcl	-11359
▁uyuch	-11360
asquiri	-11361
añanaca	-11362
ucatsti	-11363
▁adoran	-11364
▁anillo	-11365
▁camina	-11366
▁combat	-11367
▁quitar	-11368
▁qurita	-11369
▁utjayi	-11370
▁yatiyi	-11371
amamampi	-11372
ayasipjj	-11373
▁asuntos	-11374
▁awkiman	-11375
▁espanto	-11376
▁haremos	-11377
▁hermoso	-11378
▁jozabad	-11379
▁mantaña	-11380
▁reuniré	-11381
▁sarapjj	-11382
▁seguros	-11383
▁servido	-11384
▁suertet	-11385
▁traslad	-11386
▁vientos	-11387
▁yatiñap	-11388
▁amigonac	-11389
▁comienzo	-11390
▁janchejj	-11391
▁markatak	-11392
▁nayatjja	-11393
▁pablompi	-11394
▁pregunta	-11395
▁terminar	-11396
▁wañsuway	-11397
atarakïnwa	-11398
▁forastero	-11399
▁tuqirusti	-11400
▁estableció	-11401
▁mantapxäna	-11402
▁necesitado	-11403
▁siguientes	-11404
▁travesaños	-11405
▁amuyasipxam	-11406
▁campamentot	-11407
▁kellkatäqui	-11408
▁marcanacana	-11409
▁phuchhapänwa	-11410
▁uñjasipjjani	-11411
▁wawanacaparojj	-11412
";	-11413
bel	-11414
iqi	-11415
nuw	-11416
uxñ	-11417
umti	-11418
äwiw	-11419
▁gor	-11420
▁pub	-11421
aquim	-11422
▁ahol	-11423
▁apre	-11424
▁dure	-11425
▁katj	-11426
▁saca	-11427
▁tern	-11428
▁thuq	-11429
▁warc	-11430
atätwa	-11431
caquim	-11432
ipxita	-11433
yätawa	-11434
▁ajías	-11435
▁chint	-11436
▁darte	-11437
▁dejan	-11438
▁dejas	-11439
▁duele	-11440
▁ignor	-11441
▁invad	-11442
▁qhana	-11443
▁qhith	-11444
▁ínteg	-11445
atäpqui	-11446
iasasti	-11447
maldito	-11448
▁cantos	-11449
▁cuerno	-11450
▁dichos	-11451
▁elifaz	-11452
▁instru	-11453
▁luratä	-11454
▁munsma	-11455
▁tribul	-11456
▁contado	-11457
▁demonio	-11458
▁disfrut	-11459
▁matarán	-11460
▁parliri	-11461
▁pataruw	-11462
▁phoksus	-11463
▁preparó	-11464
▁qurpach	-11465
apampisti	-11466
atäcaniti	-11467
▁merecido	-11468
▁pronunci	-11469
▁qhathati	-11470
▁quebrant	-11471
▁sasinsti	-11472
▁taypinsa	-11473
▁taqiniruw	-11474
▁yatichäna	-11475
▁diosapajja	-11476
▁wasitampiw	-11477
▁yatichäwip	-11478
▁aaronampiru	-11479
▁jiwayapxäna	-11480
▁sumancthapiñ	-11481
▁juramentompiw	-11482
▁israelitanacaru	-11483
amá	-11484
cab	-11485
igu	-11486
alax	-11487
asas	-11488
caya	-11489
dalo	-11490
dero	-11491
ende	-11492
lica	-11493
saúl	-11494
xiti	-11495
▁ofi	-11496
▁pez	-11497
▁tin	-11498
añasa	-11499
jupaw	-11500
uelto	-11501
▁jiwq	-11502
▁nego	-11503
▁roja	-11504
camajj	-11505
quïpjj	-11506
änejja	-11507
▁apsut	-11508
▁arreg	-11509
▁arres	-11510
▁mutuñ	-11511
▁somet	-11512
▁utapa	-11513
▁vende	-11514
▁llaqui	-11515
▁mantat	-11516
▁prenda	-11517
▁salmos	-11518
▁utamar	-11519
▁viendo	-11520
añamatak	-11521
▁adentro	-11522
▁contemp	-11523
▁desanim	-11524
▁jakonuc	-11525
▁levadur	-11526
▁luqtani	-11527
▁medidas	-11528
▁muestra	-11529
▁natural	-11530
▁ponerse	-11531
▁reciban	-11532
▁saluden	-11533
apjjätawa	-11534
▁atacaron	-11535
▁axsartañ	-11536
▁eliaquim	-11537
▁ferezeos	-11538
▁markaxan	-11539
▁cusisiñat	-11540
▁davidarux	-11541
▁habitarán	-11542
▁labanasti	-11543
▁seguridad	-11544
▁uywanakan	-11545
añapataquiw	-11546
▁antepasado	-11547
▁arskatayna	-11548
▁claramente	-11549
▁establecer	-11550
▁sutipxaruw	-11551
▁mantapjjäna	-11552
▁novecientos	-11553
▁arsutaparjam	-11554
▁soldadonakan	-11555
▁cunjämarutejj	-11556
▁jilïrinakapax	-11557
hoy	-11558
cate	-11559
into	-11560
ipat	-11561
tjat	-11562
▁leyó	-11563
▁neto	-11564
▁ohol	-11565
▁poca	-11566
apxiwa	-11567
iripat	-11568
kawkïr	-11569
▁cuida	-11570
▁culti	-11571
▁escol	-11572
▁jalaq	-11573
▁tecoa	-11574
aphinac	-11575
pachati	-11576
taynawa	-11577
▁aprove	-11578
▁asesin	-11579
▁habitó	-11580
▁jacäna	-11581
▁jayanc	-11582
▁mantay	-11583
▁marfil	-11584
▁ovejan	-11585
▁pechos	-11586
▁qhipap	-11587
▁restos	-11588
kamakiwa	-11589
äñapatak	-11590
▁alturas	-11591
▁amparat	-11592
▁amtatap	-11593
▁aptasin	-11594
▁awkipar	-11595
▁enojado	-11596
▁escribo	-11597
▁hacerme	-11598
▁jiphill	-11599
▁obtener	-11600
▁purapat	-11601
▁tocaron	-11602
▁tucuway	-11603
▁ucjjaru	-11604
▁amalecit	-11605
▁apnakaña	-11606
▁ardiente	-11607
▁desastre	-11608
▁escritas	-11609
▁gobierno	-11610
▁luratajj	-11611
▁pachpawa	-11612
▁phiñasit	-11613
▁ukarjama	-11614
▁utjkxiti	-11615
▁acercarse	-11616
▁culpables	-11617
▁edificado	-11618
▁encuentre	-11619
▁jumatakix	-11620
▁reyipasti	-11621
▁uchatänwa	-11622
▁utjirinac	-11623
anacaparusa	-11624
▁apnakerinac	-11625
▁inmoralidad	-11626
▁manantiales	-11627
▁marcaparojj	-11628
▁yupaychapxam	-11629
▁centimetronïnwa	-11630
▁qhitinacarutejj	-11631
▁sacerdotenacasa	-11632
íl	-11633
amwa	-11634
suni	-11635
tera	-11636
▁lax	-11637
▁líb	-11638
asasa	-11639
ascän	-11640
jamäp	-11641
odías	-11642
▁bebe	-11643
▁seir	-11644
▁yesé	-11645
apatxa	-11646
▁apsuñ	-11647
▁cunja	-11648
▁ganan	-11649
▁pasti	-11650
▁plena	-11651
ajjasti	-11652
ätamjja	-11653
▁awquis	-11654
▁chimpu	-11655
▁débora	-11656
▁qallta	-11657
▁qullur	-11658
anakaxax	-11659
añatakis	-11660
▁anuncio	-11661
▁besalel	-11662
▁cunatsa	-11663
▁estreme	-11664
▁estéril	-11665
▁jamasat	-11666
▁lavarse	-11667
▁sartäna	-11668
▁takenis	-11669
▁arupampi	-11670
▁espadamp	-11671
▁espaldas	-11672
▁extremos	-11673
▁insistió	-11674
▁jupampiw	-11675
▁jupatjja	-11676
▁markapax	-11677
▁provecho	-11678
▁huérfanos	-11679
▁uñjaracta	-11680
▁levantarán	-11681
▁maravillos	-11682
▁ukanakaruw	-11683
▁ofrendanaca	-11684
▁saraqataruw	-11685
▁compatriotas	-11686
▁jikxatapxäna	-11687
▁sarnaqäwinak	-11688
▁wawanacaparu	-11689
▁jumanacarusti	-11690
▁khitinakarutix	-11691
ria	-11692
ijut	-11693
lanc	-11694
▁ani	-11695
▁fig	-11696
▁jiq	-11697
impix	-11698
▁duda	-11699
▁empu	-11700
▁nari	-11701
▁opor	-11702
▁punt	-11703
▁seno	-11704
apänti	-11705
añcama	-11706
vuelve	-11707
▁coron	-11708
▁jamat	-11709
▁katat	-11710
▁luqhi	-11711
▁utaru	-11712
▁vidas	-11713
▁wayaq	-11714
apisïna	-11715
apquiri	-11716
asisqui	-11717
itaniwa	-11718
jjarusa	-11719
▁benaía	-11720
▁cutsuy	-11721
▁desmay	-11722
▁fuimos	-11723
▁golpeó	-11724
▁jehiel	-11725
▁llenas	-11726
▁observ	-11727
▁purint	-11728
▁reyina	-11729
▁ritual	-11730
▁satawa	-11731
▁uruyañ	-11732
▁uñjkat	-11733
quipanwa	-11734
sartasim	-11735
▁armados	-11736
▁bendito	-11737
▁corromp	-11738
▁habiten	-11739
▁hacerte	-11740
▁janatat	-11741
▁mayaqui	-11742
▁mayasti	-11743
▁pasaway	-11744
▁phokhañ	-11745
▁uywatax	-11746
asiñataki	-11747
▁cuttaway	-11748
▁desobede	-11749
▁devorará	-11750
▁habitaba	-11751
▁profetar	-11752
▁prometió	-11753
▁templojj	-11754
▁ajjtascañ	-11755
▁maranïkän	-11756
▁maynicama	-11757
▁wawanïnwa	-11758
▁arunacampi	-11759
▁ofrendanac	-11760
▁asirianquir	-11761
▁chekanquiri	-11762
▁kimsaqallqun	-11763
▁jerusalenankir	-11764
hú	-11765
dem	-11766
dio	-11767
one	-11768
uth	-11769
imot	-11770
inti	-11771
ipax	-11772
rios	-11773
▁nec	-11774
iwayi	-11775
kamis	-11776
▁adar	-11777
▁beba	-11778
▁horn	-11779
▁patx	-11780
▁repu	-11781
▁abrir	-11782
▁aytas	-11783
▁cabra	-11784
▁corta	-11785
▁cortó	-11786
▁escal	-11787
▁exhor	-11788
▁kayup	-11789
▁kutin	-11790
▁machj	-11791
▁muslo	-11792
▁patar	-11793
amanjja	-11794
inakaru	-11795
▁agripa	-11796
▁captur	-11797
▁cedros	-11798
▁codici	-11799
▁corrup	-11800
▁flecha	-11801
▁jupawa	-11802
▁marana	-11803
▁pachax	-11804
▁sucede	-11805
▁waynax	-11806
anakansa	-11807
▁ajjsart	-11808
▁alabaré	-11809
▁arrebat	-11810
▁beberán	-11811
▁creador	-11812
▁cuartos	-11813
▁enviará	-11814
▁ganados	-11815
▁jebuseo	-11816
▁jilïrin	-11817
▁lurasaw	-11818
▁luratam	-11819
▁líbrame	-11820
▁metroni	-11821
▁quitará	-11822
▁quitaré	-11823
▁reyipar	-11824
iblemente	-11825
▁guerrero	-11826
▁lurasqui	-11827
▁markaman	-11828
▁ninjamaw	-11829
▁opresión	-11830
▁palaciop	-11831
▁supieron	-11832
▁enseñando	-11833
▁entregará	-11834
▁maranacaw	-11835
▁pachparak	-11836
▁reconocer	-11837
▁sirvieron	-11838
▁uchapxäna	-11839
▁ukanakaxa	-11840
▁familiares	-11841
▁judionakar	-11842
▁luqtapxäta	-11843
▁sararaquïna	-11844
▁jupanakatakix	-11845
▁utapankirinak	-11846
▁alaxpachatpach	-11847
sá	-11848
aná	-11849
eka	-11850
nes	-11851
sub	-11852
▁fí	-11853
abas	-11854
ayta	-11855
lina	-11856
▁caz	-11857
▁cip	-11858
▁ojj	-11859
▁yer	-11860
adora	-11861
amact	-11862
entor	-11863
isipk	-11864
tataw	-11865
xaruy	-11866
▁list	-11867
▁llag	-11868
▁metr	-11869
▁sank	-11870
▁sano	-11871
▁soba	-11872
▁ukak	-11873
▁uñak	-11874
entado	-11875
kuntix	-11876
▁irkat	-11877
▁nieve	-11878
▁quqan	-11879
▁uchat	-11880
▁éxito	-11881
apquitu	-11882
apxtawa	-11883
titudes	-11884
▁andrés	-11885
▁derrum	-11886
▁espero	-11887
▁guejaz	-11888
▁lurapk	-11889
▁magdal	-11890
▁manqha	-11891
▁sexual	-11892
▁subido	-11893
▁urunxa	-11894
▁zebede	-11895
▁blasfem	-11896
▁cawquir	-11897
▁cilicio	-11898
▁diosaxa	-11899
▁elisama	-11900
▁guarden	-11901
▁guilgal	-11902
▁oportun	-11903
▁servían	-11904
▁sirviri	-11905
▁taqinir	-11906
▁uñtasïw	-11907
▁apanipjj	-11908
▁diosapaw	-11909
▁entriste	-11910
▁ezequiel	-11911
▁material	-11912
▁millares	-11913
▁redentor	-11914
▁absalonan	-11915
▁apayanïna	-11916
▁chuymapar	-11917
▁diosamaxa	-11918
▁humillado	-11919
▁jawsayäna	-11920
▁jilarquir	-11921
▁yatiyäwip	-11922
▁diosanacan	-11923
▁kankañapax	-11924
▁posesiones	-11925
▁relámpagos	-11926
▁arunakampiw	-11927
▁urunacansti	-11928
▁contribución	-11929
▁juchanacapat	-11930
▁acapachanquir	-11931
rás	-11932
allc	-11933
bras	-11934
▁elá	-11935
adero	-11936
anten	-11937
ayasi	-11938
jaway	-11939
änixa	-11940
▁adad	-11941
▁asna	-11942
▁chip	-11943
▁unxt	-11944
ayasin	-11945
ekenac	-11946
inakas	-11947
iyanok	-11948
▁debir	-11949
▁irpjj	-11950
▁jakep	-11951
▁konuñ	-11952
▁putup	-11953
▁socor	-11954
▁uscut	-11955
▁alegra	-11956
▁carmel	-11957
▁jakesa	-11958
▁machos	-11959
▁sabían	-11960
▁umbral	-11961
irinakas	-11962
▁chhijll	-11963
▁churpan	-11964
▁compasi	-11965
▁importa	-11966
▁khithat	-11967
▁nanakat	-11968
▁qalampi	-11969
▁recuper	-11970
▁ventana	-11971
▁waquisi	-11972
▁acanacaw	-11973
▁catuntañ	-11974
▁extraños	-11975
▁jaltxapx	-11976
▁jutapxam	-11977
▁llamarán	-11978
▁marcapar	-11979
▁muyuntat	-11980
▁regocijo	-11981
▁cawqhantï	-11982
▁encendido	-11983
▁kollkenac	-11984
▁kusisitaw	-11985
▁mayordomo	-11986
▁príncipes	-11987
▁wakiskiti	-11988
▁apanucuway	-11989
▁churaraqui	-11990
▁convertirá	-11991
▁cunataquis	-11992
▁khithanitu	-11993
▁lurcatayna	-11994
▁marcanacaw	-11995
▁munapjjäna	-11996
▁acatjamatwa	-11997
▁arsutanakap	-11998
▁necesitados	-11999
▁obedecieron	-12000
▁prosperidad	-12001
▁wawaparaqui	-12002
▁jeremiasasti	-12003
▁jiwasanacajj	-12004
▁filisteonakax	-12005
▁yupaychapxäna	-12006
kit	-12007
▁cí	-12008
abra	-12009
kchi	-12010
mano	-12011
puni	-12012
usat	-12013
zaro	-12014
▁das	-12015
▁lek	-12016
bamos	-12017
initi	-12018
intañ	-12019
ipcta	-12020
kxäti	-12021
quien	-12022
siete	-12023
▁hiso	-12024
▁sapc	-12025
acidad	-12026
istuwa	-12027
▁arcos	-12028
▁burro	-12029
▁copas	-12030
▁dagón	-12031
▁dulce	-12032
▁khejj	-12033
▁mirar	-12034
▁moloc	-12035
▁pleno	-12036
▁reyïñ	-12037
▁thiya	-12038
▁vigas	-12039
▁costas	-12040
▁dispon	-12041
▁molino	-12042
▁muytat	-12043
▁puncur	-12044
▁siscta	-12045
▁triunf	-12046
▁vasija	-12047
asipxpan	-12048
atäñatak	-12049
istieron	-12050
maynitix	-12051
xipansti	-12052
▁amstaru	-12053
▁amuyäna	-12054
▁apresur	-12055
▁apóstol	-12056
▁asnonac	-12057
▁awkixax	-12058
▁catjjäs	-12059
▁cumplen	-12060
▁hacerle	-12061
▁interes	-12062
▁levante	-12063
▁platill	-12064
▁supayan	-12065
▁uñachay	-12066
anacamaru	-12067
asiraquim	-12068
jjapjjäta	-12069
▁khanacwa	-12070
▁pensando	-12071
▁reyipajj	-12072
▁soberano	-12073
▁tablanak	-12074
▁inmediato	-12075
▁larusipjj	-12076
▁superfici	-12077
▁kawkïritix	-12078
▁occidental	-12079
▁pampanquir	-12080
▁presentará	-12081
▁adversarios	-12082
▁chachanakan	-12083
▁jerusalenat	-12084
▁jesucristos	-12085
▁sapxarakïna	-12086
apxañapatakiw	-12087
▁profetanakax	-12088
▁unañchäwinak	-12089
nó	-12090
äwï	-12091
añwa	-12092
será	-12093
▁hos	-12094
▁neh	-12095
atita	-12096
katay	-12097
untas	-12098
▁ahaz	-12099
▁alej	-12100
▁caen	-12101
▁paya	-12102
▁seco	-12103
▁siló	-12104
▁tact	-12105
apansa	-12106
awjaru	-12107
tienen	-12108
▁caras	-12109
▁enram	-12110
▁envía	-12111
▁exclu	-12112
▁jayra	-12113
▁jilam	-12114
▁juzga	-12115
▁munir	-12116
▁relig	-12117
anakani	-12118
anquiwa	-12119
apampix	-12120
axataki	-12121
▁awtjat	-12122
▁existe	-12123
▁marcap	-12124
▁ordeno	-12125
▁pieles	-12126
▁qhitat	-12127
▁seamos	-12128
▁suxtan	-12129
▁uñjirï	-12130
unakampi	-12131
▁arsupjj	-12132
▁catokañ	-12133
▁chiqäki	-12134
▁cuantos	-12135
▁general	-12136
▁laycuwa	-12137
▁libraré	-12138
▁qhantat	-12139
▁sutipax	-12140
▁tuqirux	-12141
▁vivimos	-12142
jjasinsti	-12143
▁hacerles	-12144
▁mayisïna	-12145
▁munatajj	-12146
▁quisiera	-12147
▁utanakap	-12148
anacamampi	-12149
▁arnakasit	-12150
▁cumpliera	-12151
▁descender	-12152
▁entendido	-12153
▁hermosura	-12154
▁primicias	-12155
▁puriñkama	-12156
▁situación	-12157
▁wawapasti	-12158
▁ñanqhanak	-12159
cunataraqui	-12160
▁alajjpacha	-12161
▁luqtapxäna	-12162
▁pakallkoni	-12163
▁profetanac	-12164
▁tribunquir	-12165
asipxarakïna	-12166
▁jesucristor	-12167
▁llaquisipjj	-12168
▁fá	-12169
akur	-12170
äniw	-12171
▁ace	-12172
▁apr	-12173
▁asu	-12174
▁ict	-12175
arutï	-12176
carán	-12177
ensas	-12178
etuwa	-12179
ojjña	-12180
▁acán	-12181
▁ajaz	-12182
▁aliq	-12183
intäna	-12184
▁blanc	-12185
▁lleve	-12186
▁payar	-12187
▁remal	-12188
▁takis	-12189
▁umjam	-12190
▁utjas	-12191
▁walwa	-12192
iristwa	-12193
kirista	-12194
äyätati	-12195
▁acepta	-12196
▁alakip	-12197
▁espías	-12198
▁lurapc	-12199
▁minist	-12200
▁mueren	-12201
▁rompió	-12202
▁tuqina	-12203
irinakaw	-12204
▁casarse	-12205
▁cometió	-12206
▁defensa	-12207
▁exclamó	-12208
▁honores	-12209
▁kokanac	-12210
▁nayajja	-12211
▁pedaías	-12212
▁respeta	-12213
▁ukkharu	-12214
asipxtaxa	-12215
ipkatayna	-12216
▁amuyumpi	-12217
▁antutnuk	-12218
▁cusisita	-12219
▁huérfano	-12220
▁jesusamp	-12221
▁jumatjja	-12222
▁kollketa	-12223
▁phokhasa	-12224
▁apnaqäwip	-12225
▁centurión	-12226
▁jichhajja	-12227
▁tempestad	-12228
▁jaqinakäpx	-12229
▁multitudes	-12230
▁munapcänti	-12231
▁palaciopan	-12232
▁qillqatäki	-12233
cunjämaraqui	-12234
▁bendiciones	-12235
▁nabuzaradán	-12236
▁amuyasipjjam	-12237
▁diosanakaruw	-12238
▁wawanakaparux	-12239
▁yatiqirinakapax	-12240
iat	-12241
emor	-12242
ojjñ	-12243
▁amó	-12244
cätam	-12245
erïna	-12246
panti	-12247
▁clav	-12248
▁peti	-12249
▁pide	-12250
▁ucañ	-12251
▁wich	-12252
asiriw	-12253
gridad	-12254
unjata	-12255
▁catur	-12256
▁music	-12257
▁nacor	-12258
▁ornán	-12259
jamajja	-12260
käyätti	-12261
usinsti	-12262
▁empezó	-12263
▁flecht	-12264
▁iremos	-12265
▁murmur	-12266
▁palmer	-12267
▁prodig	-12268
▁tuqita	-12269
▁uchant	-12270
ampirojj	-12271
ayañatak	-12272
uchupxam	-12273
▁desnudo	-12274
▁eliseon	-12275
▁hablará	-12276
▁ofrecía	-12277
▁pasarán	-12278
▁piernas	-12279
▁sutimpi	-12280
▁tratado	-12281
▁tukuway	-12282
▁wawapar	-12283
asaraquiw	-12284
irinakaru	-12285
jjasinjja	-12286
▁lurtajja	-12287
▁maravill	-12288
▁sofonías	-12289
▁waliquïs	-12290
▁bendecirá	-12291
▁eliasasti	-12292
▁pilastras	-12293
▁ukhamaruw	-12294
▁descienden	-12295
▁integridad	-12296
▁jacapjjäna	-12297
▁qalltasina	-12298
▁uñjapjjäna	-12299
misiblemente	-12300
asipjjaraquini	-12301
▁marcanacatejj	-12302
▁uñisirinacajj	-12303
awr	-12304
acta	-12305
nego	-12306
▁ari	-12307
▁jet	-12308
cario	-12309
xatam	-12310
▁akax	-12311
▁desn	-12312
▁hilo	-12313
▁sanó	-12314
▁tomé	-12315
ayasis	-12316
inakaw	-12317
irisma	-12318
itpach	-12319
jantes	-12320
rantat	-12321
▁grito	-12322
▁hazme	-12323
▁recur	-12324
asataki	-12325
▁alaben	-12326
▁axsart	-12327
▁cambió	-12328
▁chhaqt	-12329
▁chiqax	-12330
▁echará	-12331
▁entrañ	-12332
▁hisopo	-12333
▁jakcat	-12334
▁jiltay	-12335
▁moneda	-12336
▁munkañ	-12337
▁nayran	-12338
▁patxan	-12339
▁plazas	-12340
▁regalo	-12341
▁sullca	-12342
▁torres	-12343
cawquinc	-12344
▁anillos	-12345
▁cantaré	-12346
▁chicajj	-12347
▁eliasax	-12348
▁especie	-12349
▁hombros	-12350
▁iscario	-12351
▁jichhak	-12352
▁jilapar	-12353
▁mutuyäw	-12354
▁protege	-12355
▁uqhamar	-12356
▁wawapan	-12357
▁yatïnwa	-12358
kamisarak	-12359
▁qullanap	-12360
▁sentaron	-12361
▁ukkharuw	-12362
apquistati	-12363
▁chachajja	-12364
▁isthapita	-12365
▁arunakampi	-12366
▁diosaparuw	-12367
▁informaron	-12368
▁phokhantat	-12369
▁seguidores	-12370
▁semejantes	-12371
▁superficie	-12372
▁ucanacaruw	-12373
jjañapataqui	-12374
▁arunacapajj	-12375
▁jichhürcama	-12376
▁jiwarapxäna	-12377
▁presentarse	-12378
▁khepärmanthi	-12379
lí	-12380
ná	-12381
ní	-12382
...	-12383
iba	-12384
niy	-12385
sac	-12386
say	-12387
anes	-12388
ilai	-12389
trés	-12390
usar	-12391
yaqh	-12392
▁bin	-12393
▁ijm	-12394
▁sán	-12395
asiwa	-12396
isten	-12397
kïnwa	-12398
utejj	-12399
▁asig	-12400
▁quqa	-12401
▁sana	-12402
▁sarc	-12403
atapax	-12404
ataxat	-12405
ipxsma	-12406
▁fácil	-12407
▁gusto	-12408
▁imxat	-12409
▁novio	-12410
▁pongo	-12411
▁qhaya	-12412
▁quena	-12413
▁sacud	-12414
▁secan	-12415
▁sijón	-12416
▁sufre	-12417
asisipk	-12418
asiñäni	-12419
escucha	-12420
ipjjeta	-12421
kasinsa	-12422
▁cabrío	-12423
▁dormir	-12424
▁efrata	-12425
▁hombro	-12426
▁mayani	-12427
▁record	-12428
▁cuchill	-12429
▁cunansa	-12430
▁excepto	-12431
▁parlani	-12432
▁quemado	-12433
▁tukjäna	-12434
▁arrojado	-12435
▁creyente	-12436
▁enseñaba	-12437
▁katuqani	-12438
▁kharinuk	-12439
▁lantejja	-12440
▁marcampi	-12441
▁vacanaka	-12442
▁wawapajj	-12443
▁acanacawa	-12444
▁bendeciré	-12445
▁fielmente	-12446
▁orakensti	-12447
▁pablorojj	-12448
▁perdonado	-12449
asiraquïnwa	-12450
▁incensario	-12451
▁veintitrés	-12452
▁waljaniruw	-12453
asipjjaraqui	-12454
▁arsutanacam	-12455
▁jaltxapxäna	-12456
▁phuqhantatawa	-12457
▁jaqinakapampix	-12458
▁qhipärmanthisti	-12459
ipó	-12460
rea	-12461
tró	-12462
ïspa	-12463
▁wac	-12464
▁yej	-12465
achos	-12466
▁adán	-12467
▁asir	-12468
▁bene	-12469
▁geba	-12470
▁isch	-12471
▁karj	-12472
▁lurc	-12473
▁ayudó	-12474
▁chikt	-12475
▁divor	-12476
▁intro	-12477
▁jirán	-12478
▁justa	-12479
▁perro	-12480
▁saman	-12481
▁samka	-12482
▁sidon	-12483
▁yapjj	-12484
asiñajj	-12485
pjjaruw	-12486
▁abiram	-12487
▁cristö	-12488
▁dragón	-12489
▁kollut	-12490
▁patxar	-12491
▁semana	-12492
▁thaker	-12493
▁yatiri	-12494
apxañäni	-12495
onakasti	-12496
▁almacen	-12497
▁anqäxan	-12498
▁chekawa	-12499
▁hacerse	-12500
▁iguales	-12501
▁jakapki	-12502
▁límites	-12503
▁mantant	-12504
▁masipan	-12505
▁munapxi	-12506
▁sarxapx	-12507
▁siskäna	-12508
▁wakisit	-12509
▁yattaxa	-12510
anakansti	-12511
apkätamti	-12512
kataynati	-12513
▁cerrojos	-12514
▁chekäqui	-12515
▁enseñore	-12516
▁kankañan	-12517
▁llegamos	-12518
▁obstante	-12519
▁purifica	-12520
▁regiones	-12521
▁sutiparu	-12522
▁walikiwa	-12523
▁chiqansti	-12524
▁chuymapat	-12525
▁eternidad	-12526
▁janchipan	-12527
▁jaqirusti	-12528
▁khithanit	-12529
▁kunatakis	-12530
▁luraycäna	-12531
▁munapjjta	-12532
▁rebelaron	-12533
▁recibirlo	-12534
▁terremoto	-12535
▁yänakampi	-12536
kawkinkarak	-12537
▁yatiñataki	-12538
achasisinjja	-12539
▁babiloniaru	-12540
▁iyawsañampi	-12541
▁jiwayañatak	-12542
▁awquinacapan	-12543
▁jumanacataqui	-12544
▁sarakatarusti	-12545
▁yupaychañatak	-12546
kunapachkamarak	-12547
▁yaqhipanakasti	-12548
▁jé	-12549
adán	-12550
enai	-12551
icos	-12552
atiel	-12553
bendi	-12554
kasas	-12555
rones	-12556
ticas	-12557
verio	-12558
ïkiti	-12559
▁impi	-12560
asmawa	-12561
atamsa	-12562
okhejj	-12563
▁aljan	-12564
▁cobra	-12565
▁deber	-12566
▁sihón	-12567
▁sumar	-12568
ampïpan	-12569
askänti	-12570
irutejj	-12571
thapïna	-12572
▁acabar	-12573
▁apolos	-12574
▁arusti	-12575
▁cedrón	-12576
▁dieran	-12577
▁enorme	-12578
▁jakemp	-12579
▁josear	-12580
▁jupasa	-12581
▁khapak	-12582
▁leyejj	-12583
▁piensa	-12584
▁puripx	-12585
▁tantas	-12586
▁taquis	-12587
▁tomaré	-12588
achjataw	-12589
▁abigail	-12590
▁amasada	-12591
▁churiri	-12592
▁churäwi	-12593
▁dejarás	-12594
▁jilïrix	-12595
▁kalampi	-12596
▁kimsani	-12597
▁lleguen	-12598
▁luratax	-12599
▁orakjja	-12600
▁pilares	-12601
▁respons	-12602
▁tocaban	-12603
▁tokenok	-12604
anacamasa	-12605
ayarakïna	-12606
babilonia	-12607
irinakasa	-12608
▁apthapit	-12609
▁división	-12610
▁impiedad	-12611
▁misterio	-12612
▁munapxta	-12613
▁nayräxan	-12614
▁proviene	-12615
▁queremos	-12616
▁amparamar	-12617
▁chuymanïñ	-12618
▁derrotado	-12619
▁fronteras	-12620
▁israelana	-12621
▁jumanakaw	-12622
▁makhatäna	-12623
▁muchísimo	-12624
▁purinxiwa	-12625
▁reyëjjäna	-12626
▁tatitusan	-12627
▁yatichiri	-12628
araquïtamwa	-12629
▁cautiverio	-12630
▁laycuraqui	-12631
▁lurapxamti	-12632
▁churarakïna	-12633
▁parlapjjäna	-12634
▁warminacajj	-12635
▁jaqinakampiw	-12636
▁jerusalenaru	-12637
▁nayraqatapat	-12638
▁profetanakan	-12639
▁apnakañapataqui	-12640
alé	-12641
job	-12642
nea	-12643
ono	-12644
enka	-12645
▁ich	-12646
▁top	-12647
▁vil	-12648
desde	-12649
ánico	-12650
▁abed	-12651
▁adúl	-12652
▁amen	-12653
▁apth	-12654
▁char	-12655
▁coll	-12656
▁dejé	-12657
▁khom	-12658
▁laca	-12659
▁ofir	-12660
▁umsa	-12661
inejja	-12662
käntix	-12663
ïristi	-12664
▁jamas	-12665
▁mares	-12666
▁mesac	-12667
▁phesk	-12668
▁qarit	-12669
▁reyis	-12670
▁sobal	-12671
▁vivas	-12672
▁wawam	-12673
iéndose	-12674
▁andaba	-12675
▁azotea	-12676
▁batall	-12677
▁chhuqh	-12678
▁flores	-12679
▁jiwatä	-12680
▁micael	-12681
▁ninajj	-12682
▁pastos	-12683
▁pleito	-12684
▁saräta	-12685
aquïniwa	-12686
atäjjewa	-12687
▁ajllisk	-12688
▁cometen	-12689
▁guardan	-12690
▁guerras	-12691
▁hititas	-12692
▁jaccäna	-12693
▁juzgará	-12694
▁kunatak	-12695
▁mutuyañ	-12696
▁ninaruw	-12697
▁permite	-12698
▁salteri	-12699
▁vacanak	-12700
▁víctima	-12701
▁churañap	-12702
▁derramar	-12703
▁entrañas	-12704
▁hasabías	-12705
▁hermosas	-12706
▁jaytanuc	-12707
▁pastoreo	-12708
▁recordar	-12709
▁tuqitsti	-12710
▁warmirux	-12711
▁aborrecen	-12712
▁derramado	-12713
▁desprecio	-12714
▁intención	-12715
▁permitido	-12716
▁sutejjaru	-12717
▁consagrada	-12718
▁finalmente	-12719
▁fortalezas	-12720
▁kawkïrinak	-12721
▁naturaleza	-12722
▁nayaraquiw	-12723
▁warmipasti	-12724
▁chhuxriñchj	-12725
▁luratanakax	-12726
▁pachparakiw	-12727
▁marcanacampi	-12728
▁sarnakapjjam	-12729
▁marcanacarojj	-12730
▁luratanacapasti	-12731
▁yupaychañataqui	-12732
fis	-12733
esan	-12734
uchu	-12735
áben	-12736
ätxa	-12737
▁osc	-12738
amsti	-12739
daste	-12740
erior	-12741
garse	-12742
luvio	-12743
tando	-12744
▁cris	-12745
▁ensé	-12746
▁hech	-12747
▁koka	-12748
▁pref	-12749
▁siga	-12750
▁traí	-12751
diosaw	-12752
onacaw	-12753
▁capaz	-12754
▁cetro	-12755
▁gerar	-12756
▁hanán	-12757
▁ikint	-12758
▁kokan	-12759
▁maten	-12760
▁redes	-12761
▁reyim	-12762
▁sehón	-12763
▁debían	-12764
▁falsas	-12765
▁jaqixa	-12766
▁pronun	-12767
▁pánico	-12768
▁robado	-12769
▁suceda	-12770
▁ullart	-12771
▁uñjtwa	-12772
▁venida	-12773
adamente	-12774
anipxsma	-12775
apkituti	-12776
▁ahimaas	-12777
▁alegres	-12778
▁belleza	-12779
▁diluvio	-12780
▁engañar	-12781
▁habrían	-12782
▁huyendo	-12783
▁korpach	-12784
▁llätunc	-12785
▁tawaqur	-12786
▁utjaski	-12787
aracsmawa	-12788
atanacajj	-12789
▁abinadab	-12790
▁aborrece	-12791
▁ajayusti	-12792
▁cortinas	-12793
▁diosasan	-12794
▁habitada	-12795
▁jakerusa	-12796
▁jawsasin	-12797
▁larusipx	-12798
▁munapjje	-12799
▁nuwantir	-12800
▁repartir	-12801
▁rodearon	-12802
▁salatiel	-12803
▁volverás	-12804
▁warmipax	-12805
añamatakiw	-12806
▁acanacajj	-12807
▁berequías	-12808
▁chiqatsti	-12809
▁iyawsañan	-12810
▁proclamar	-12811
cjjapjjänti	-12812
▁arunactejj	-12813
▁awatirinac	-12814
▁derrotaron	-12815
▁diciéndole	-12816
▁espiritual	-12817
▁nanacarojj	-12818
aniñapataqui	-12819
▁janchinakap	-12820
▁jaqinakatix	-12821
▁sarnaqapxam	-12822
▁sartasinjja	-12823
▁jiwarayapxäna	-12824
▁mistuwayasajj	-12825
▁sapjjaraquiwa	-12826
▁filisteonacajj	-12827
cá	-12828
!",	-12829
ael	-12830
had	-12831
ide	-12832
kor	-12833
▁bó	-12834
abet	-12835
anda	-12836
asaf	-12837
ciso	-12838
najj	-12839
▁gac	-12840
▁gig	-12841
▁gué	-12842
achañ	-12843
amana	-12844
balat	-12845
cense	-12846
farna	-12847
hadad	-12848
rique	-12849
tamti	-12850
▁caif	-12851
▁etam	-12852
▁herr	-12853
▁jeús	-12854
▁jutä	-12855
▁lurk	-12856
▁tort	-12857
ampach	-12858
jjarus	-12859
äquisa	-12860
▁altan	-12861
▁bajar	-12862
▁barba	-12863
▁cuyas	-12864
▁infer	-12865
▁lotán	-12866
▁profé	-12867
▁rahab	-12868
▁sejja	-12869
▁tubal	-12870
ántense	-12871
▁agradó	-12872
▁amuyta	-12873
▁chipre	-12874
▁décimo	-12875
▁entera	-12876
▁envidi	-12877
▁exterm	-12878
▁gradas	-12879
▁qhanap	-12880
▁traían	-12881
▁ukkhat	-12882
▁amparax	-12883
▁cafarna	-12884
▁capitel	-12885
▁enrique	-12886
▁jithekt	-12887
▁juchach	-12888
▁kunatsa	-12889
▁reciben	-12890
▁tuviera	-12891
▁vendido	-12892
▁íntegro	-12893
caraquïna	-12894
▁bendecir	-12895
▁catokäna	-12896
▁churaway	-12897
▁confines	-12898
▁derechos	-12899
▁escribir	-12900
▁jawirata	-12901
▁matatías	-12902
▁urunakax	-12903
anacapajja	-12904
xañapataki	-12905
▁jakenacas	-12906
▁jumanacaw	-12907
▁maranakaw	-12908
▁prácticas	-12909
▁sinagogan	-12910
▁cumplieron	-12911
▁destructor	-12912
▁reyinacajj	-12913
▁extranjeras	-12914
▁jakenacäpjj	-12915
▁lurapjjamti	-12916
▁khuyapayasir	-12917
▁soldadonacajj	-12918
▁yatichäwinakap	-12919
▁juchañchatäniwa	-12920
bed	-12921
lle	-12922
hijo	-12923
iniw	-12924
tame	-12925
upxi	-12926
▁alo	-12927
▁ela	-12928
▁hue	-12929
▁meh	-12930
▁mig	-12931
▁org	-12932
▁pór	-12933
▁sib	-12934
aquis	-12935
assma	-12936
tanse	-12937
ucama	-12938
▁suba	-12939
▁säwi	-12940
▁teme	-12941
▁tito	-12942
atäpki	-12943
brados	-12944
entará	-12945
iskäna	-12946
▁cunat	-12947
▁embos	-12948
▁matan	-12949
▁nombr	-12950
▁ponte	-12951
▁ullar	-12952
▁verte	-12953
▁zarza	-12954
ancquis	-12955
onakaru	-12956
▁alabar	-12957
▁atrios	-12958
▁brasas	-12959
▁confía	-12960
▁efrain	-12961
▁espant	-12962
▁jaläna	-12963
▁jesbón	-12964
▁plagas	-12965
▁sistxa	-12966
▁utjnuq	-12967
anakamas	-12968
arjamajj	-12969
atamente	-12970
▁arrepen	-12971
▁berseba	-12972
▁cunanac	-12973
▁existir	-12974
▁jichhat	-12975
▁jiwaway	-12976
▁loktäna	-12977
▁lurañsa	-12978
▁pareció	-12979
▁pasados	-12980
▁produce	-12981
▁sapjjam	-12982
▁sasasti	-12983
▁waqaych	-12984
▁aceptado	-12985
▁ajllista	-12986
▁anterior	-12987
▁barzilai	-12988
▁chiqanak	-12989
▁markanxa	-12990
▁awquiparu	-12991
▁chiqakama	-12992
▁desciende	-12993
▁examinará	-12994
▁jaqunukut	-12995
▁kankañamp	-12996
▁purinkani	-12997
▁qillqatax	-12998
▁sandalias	-12999
▁yuqapasti	-13000
▁isinacampi	-13001
▁jichhürkam	-13002
▁qhuyapayas	-13003
▁urunakapan	-13004
añaparaquiwa	-13005
▁importantes	-13006
▁janiraquiwa	-13007
▁comerciantes	-13008
▁inmediatamente	-13009
▁yupaychapjjäna	-13010
gag	-13011
vet	-13012
axad	-13013
añat	-13014
estu	-13015
suma	-13016
▁fla	-13017
▁gre	-13018
apunï	-13019
äjjat	-13020
▁agag	-13021
▁asal	-13022
▁catj	-13023
▁imat	-13024
▁mojj	-13025
apisit	-13026
aquipa	-13027
unakaw	-13028
änisti	-13029
äyätan	-13030
▁derre	-13031
▁irnuq	-13032
▁persu	-13033
▁podré	-13034
▁ruben	-13035
▁suchu	-13036
itätawa	-13037
umarach	-13038
äyätjja	-13039
▁achuri	-13040
▁alumbr	-13041
▁apasjj	-13042
▁jactan	-13043
▁merece	-13044
▁sintió	-13045
▁vacías	-13046
apkätati	-13047
ayasisaw	-13048
▁acostar	-13049
▁apayank	-13050
▁arfaxad	-13051
▁betania	-13052
▁caperna	-13053
▁chiqawj	-13054
▁cintura	-13055
▁costado	-13056
▁descubr	-13057
▁jiwarañ	-13058
▁jiwasat	-13059
▁llevaré	-13060
▁montaña	-13061
▁payaruw	-13062
▁procede	-13063
▁tomando	-13064
▁ukhamar	-13065
▁wawajja	-13066
▁yatiyam	-13067
apunïtawa	-13068
quipanjja	-13069
▁enviados	-13070
▁estatura	-13071
▁parecido	-13072
▁queridos	-13073
apxatapata	-13074
▁jakenacwa	-13075
▁kutikipst	-13076
▁madianita	-13077
▁postraron	-13078
▁uqhamaruw	-13079
▁apariencia	-13080
▁faraonasti	-13081
▁jupanakaru	-13082
▁mayninakar	-13083
▁purisinjja	-13084
▁warminakax	-13085
▁campamentop	-13086
▁jumanacajja	-13087
▁khejjokhejj	-13088
▁jakenacatjja	-13089
▁jiwarapjjani	-13090
▁qhuyapayasir	-13091
añanacapataqui	-13092
▁luratanacapajj	-13093
eñ	-13094
uye	-13095
veno	-13096
zate	-13097
éser	-13098
▁fér	-13099
▁púb	-13100
▁rez	-13101
▁rog	-13102
ayasï	-13103
cunja	-13104
iores	-13105
istes	-13106
▁acan	-13107
▁bani	-13108
▁besó	-13109
▁boaz	-13110
▁casi	-13111
▁insc	-13112
▁lanc	-13113
actjja	-13114
amatak	-13115
añuchj	-13116
▁acanc	-13117
▁enséñ	-13118
▁hageo	-13119
▁judän	-13120
▁moles	-13121
▁nayas	-13122
▁pidan	-13123
▁qalat	-13124
▁tumba	-13125
▁vigor	-13126
▁wiskh	-13127
aspajja	-13128
ándolos	-13129
▁aparan	-13130
▁arumpi	-13131
▁determ	-13132
▁entran	-13133
▁jilapa	-13134
▁jiwani	-13135
▁jiwata	-13136
▁mirada	-13137
▁noveno	-13138
▁oraktï	-13139
▁paralí	-13140
▁quicpa	-13141
▁tukuyi	-13142
añamajja	-13143
quirista	-13144
▁ajllisc	-13145
▁alegran	-13146
▁anuncia	-13147
▁esquina	-13148
▁generos	-13149
▁ilusión	-13150
▁lantejj	-13151
▁maltrat	-13152
▁reyitak	-13153
▁rodeado	-13154
▁temible	-13155
▁vencido	-13156
apampiruw	-13157
apjjetäta	-13158
quipansti	-13159
▁ajayupaw	-13160
▁awatisiñ	-13161
▁bendigan	-13162
▁hirieron	-13163
▁jiwxatap	-13164
▁markaxax	-13165
▁patxaruw	-13166
▁pescados	-13167
▁prestado	-13168
▁quitaron	-13169
▁rebelión	-13170
▁rituales	-13171
▁sabiendo	-13172
▁señalado	-13173
▁ukkhakiw	-13174
▁warmejja	-13175
▁yatisina	-13176
▁bienestar	-13177
▁condición	-13178
▁conquista	-13179
▁diosatejj	-13180
▁irpapxäna	-13181
▁jakerusti	-13182
▁josearojj	-13183
▁panpachan	-13184
▁sartasïna	-13185
▁warminaka	-13186
▁yatiqirip	-13187
jumanakatix	-13188
▁churäwinac	-13189
▁igualmente	-13190
▁isinakampi	-13191
▁markaparuw	-13192
bienaventura	-13193
▁jupanacajja	-13194
▁loktäwinaca	-13195
▁sacerdotempi	-13196
▁wawanacaparusa	-13197
yos	-13198
zeb	-13199
ére	-13200
bien	-13201
caba	-13202
inch	-13203
ukis	-13204
▁doc	-13205
▁gam	-13206
▁rac	-13207
estoy	-13208
ficul	-13209
gaste	-13210
hagan	-13211
quisc	-13212
tanti	-13213
tenlo	-13214
vanse	-13215
▁dest	-13216
▁esco	-13217
▁isir	-13218
▁khum	-13219
▁pirw	-13220
▁sacu	-13221
▁sálv	-13222
▁unan	-13223
▁wañs	-13224
amento	-13225
cación	-13226
unjani	-13227
upuniw	-13228
▁apoyo	-13229
▁atorm	-13230
▁busco	-13231
▁creta	-13232
▁disón	-13233
▁déjen	-13234
▁formó	-13235
▁magos	-13236
▁merar	-13237
▁nuera	-13238
▁qhill	-13239
abraham	-13240
amansti	-13241
ayasipx	-13242
cusisiñ	-13243
▁comían	-13244
▁horrib	-13245
▁jactay	-13246
▁juchax	-13247
▁korimp	-13248
▁llaman	-13249
▁locura	-13250
▁mäquiw	-13251
▁nietos	-13252
▁nombró	-13253
▁piados	-13254
▁ponían	-13255
▁recién	-13256
▁suplic	-13257
▁tucüna	-13258
▁utjchi	-13259
ascaniti	-13260
caraquis	-13261
érquense	-13262
▁ajllita	-13263
▁arroyos	-13264
▁arunaka	-13265
▁asnonak	-13266
▁atiende	-13267
▁cántaro	-13268
▁dificul	-13269
▁frondos	-13270
▁llaquit	-13271
▁manifes	-13272
▁parecen	-13273
▁paterna	-13274
▁qullqip	-13275
▁sartani	-13276
▁sienten	-13277
▁sojjtan	-13278
▁trampas	-13279
▁trastor	-13280
asipjjpan	-13281
▁aaronajj	-13282
▁abiertos	-13283
▁alaquipa	-13284
▁buscarán	-13285
▁catuntay	-13286
▁churänwa	-13287
▁comprado	-13288
▁conozcan	-13289
▁creación	-13290
▁langosta	-13291
▁makhatañ	-13292
▁perfecto	-13293
▁remalías	-13294
▁selemías	-13295
▁terrenos	-13296
iraquïniwa	-13297
▁esperando	-13298
▁jutapxani	-13299
▁profanado	-13300
▁taypinjam	-13301
▁thakhinak	-13302
▁warminaca	-13303
▁administra	-13304
▁alaxpachar	-13305
▁disciplina	-13306
▁jumanakamp	-13307
▁labradores	-13308
▁loktatäqui	-13309
▁markaparux	-13310
▁recogieron	-13311
▁uraqinakan	-13312
apjjaraquïma	-13313
▁crucificado	-13314
▁preguntaban	-13315
▁luratanacajj	-13316
▁yatichirinak	-13317
▁jiwayañataqui	-13318
▁soldadonakasti	-13319
▁jilïrinakapampi	-13320
fra	-13321
uno	-13322
▁ás	-13323
judi	-13324
mois	-13325
äwis	-13326
▁acu	-13327
▁ams	-13328
▁asc	-13329
▁rab	-13330
janik	-13331
jupax	-13332
▁awki	-13333
▁erig	-13334
▁irse	-13335
▁oirá	-13336
▁tina	-13337
ayistu	-13338
añapax	-13339
tawayi	-13340
thapiy	-13341
tienda	-13342
xapxän	-13343
▁alwat	-13344
▁anill	-13345
▁aptas	-13346
▁belen	-13347
▁fruta	-13348
▁grave	-13349
▁husai	-13350
▁lagar	-13351
▁mallt	-13352
▁novia	-13353
▁oreja	-13354
▁sujet	-13355
▁wisqh	-13356
ascänti	-13357
atätawa	-13358
onakana	-13359
quimaya	-13360
▁awquir	-13361
▁hallar	-13362
▁jaltañ	-13363
▁llenan	-13364
▁marcas	-13365
▁ocupar	-13366
▁pagaré	-13367
▁presta	-13368
alaxpach	-13369
ayatänwa	-13370
qhitinac	-13371
▁asesino	-13372
▁bajaron	-13373
▁chiqana	-13374
▁criadas	-13375
▁inamaya	-13376
▁jaquiri	-13377
▁luränwa	-13378
▁munamti	-13379
▁pedirle	-13380
▁quimsan	-13381
▁taypinc	-13382
▁utjirin	-13383
apampejja	-13384
apjjsmawa	-13385
añchapxam	-13386
▁amuyapjj	-13387
▁buscaban	-13388
▁constitu	-13389
▁cutiquip	-13390
▁jaqirusa	-13391
▁marcanwa	-13392
▁pregunté	-13393
▁revelado	-13394
▁satäniwa	-13395
▁satäquis	-13396
▁torrente	-13397
▁urunakaw	-13398
▁warmipar	-13399
asiñapatak	-13400
▁absalonax	-13401
▁capitanes	-13402
▁chekansti	-13403
▁iscariote	-13404
▁iyawsasaw	-13405
▁jakapxäna	-13406
▁jakthapit	-13407
▁jilatanak	-13408
▁jilïripax	-13409
▁jupampejj	-13410
▁khathatiy	-13411
▁luraskani	-13412
▁oraketjja	-13413
▁temblando	-13414
▁ukanakata	-13415
▁yänakapsa	-13416
▁luratapata	-13417
▁responderá	-13418
jjaraquiniwa	-13419
▁arsutanakam	-13420
▁jupanacjjaru	-13421
▁kalltapjjäna	-13422
▁luraraquïnwa	-13423
▁uñtataraquiw	-13424
jjapjjaraquïna	-13425
▁markanakankir	-13426
▁phokhañataqui	-13427
atäpjjaraquïnwa	-13428
adac	-13429
alab	-13430
kuns	-13431
orma	-13432
▁ust	-13433
▁uzi	-13434
allar	-13435
aquïs	-13436
arajj	-13437
cunas	-13438
hinom	-13439
kasax	-13440
trina	-13441
▁artí	-13442
▁hach	-13443
▁lodo	-13444
▁poti	-13445
▁thus	-13446
▁tuct	-13447
apxirï	-13448
arakis	-13449
atanak	-13450
ipxäta	-13451
janiti	-13452
ktamti	-13453
äspawa	-13454
▁amarg	-13455
▁cocin	-13456
▁efrón	-13457
▁filip	-13458
▁hambr	-13459
▁hitit	-13460
▁jobab	-13461
▁joyas	-13462
▁manti	-13463
▁rocas	-13464
▁salvó	-13465
▁vasti	-13466
unacajj	-13467
upjjäna	-13468
▁andado	-13469
▁apasin	-13470
▁cornel	-13471
▁etíope	-13472
▁grecia	-13473
▁marawa	-13474
▁quebar	-13475
▁sendas	-13476
▁turnos	-13477
aparojja	-13478
apxirïna	-13479
kiristti	-13480
tayanïna	-13481
▁chhuxll	-13482
▁declaró	-13483
▁extraña	-13484
▁jakañam	-13485
▁jilaman	-13486
▁josadac	-13487
▁lurapki	-13488
▁martill	-13489
▁prestar	-13490
▁resucit	-13491
▁selomit	-13492
▁vidente	-13493
anïñapawa	-13494
arjamasti	-13495
▁bebieron	-13496
▁concedió	-13497
▁despertó	-13498
▁enterrar	-13499
▁lurapqui	-13500
▁nanakamp	-13501
▁ofrezcan	-13502
▁palacion	-13503
▁capacidad	-13504
▁declarado	-13505
▁jutapjjam	-13506
▁mentiroso	-13507
▁tranquila	-13508
anacapatjja	-13509
▁absalonajj	-13510
▁adversario	-13511
▁arumpachaw	-13512
▁diosamasti	-13513
▁munapkänti	-13514
▁nacimiento	-13515
▁reconozcan	-13516
▁sirvientes	-13517
▁jilïrinakan	-13518
▁loktapjjäta	-13519
▁nayraqatana	-13520
▁phuchapänwa	-13521
▁presentarán	-13522
▁sarawayxäna	-13523
▁taqpachanix	-13524
▁veintisiete	-13525
▁uqhamarjamaw	-13526
▁jakenacarojja	-13527
▁profetanacajj	-13528
▁verdaderamente	-13529
aní	-13530
añü	-13531
dol	-13532
dón	-13533
ipï	-13534
pin	-13535
was	-13536
utap	-13537
▁gas	-13538
▁zin	-13539
alajj	-13540
anaim	-13541
atitu	-13542
añawa	-13543
fican	-13544
ichit	-13545
insti	-13546
kitix	-13547
nadas	-13548
punwa	-13549
tivos	-13550
änisa	-13551
▁cayu	-13552
▁cobr	-13553
▁exal	-13554
▁gana	-13555
▁purt	-13556
▁urus	-13557
amakan	-13558
casmas	-13559
iasajj	-13560
kamach	-13561
tsasar	-13562
ätanwa	-13563
äyätti	-13564
▁asnor	-13565
▁conmo	-13566
▁creyó	-13567
▁finas	-13568
▁jutay	-13569
▁kunaw	-13570
▁lliju	-13571
▁patas	-13572
▁pieza	-13573
▁pájar	-13574
▁qachu	-13575
▁sejón	-13576
▁siemb	-13577
▁tabor	-13578
▁yäqat	-13579
anaksti	-13580
antasin	-13581
askakim	-13582
asïyäta	-13583
denados	-13584
▁abismo	-13585
▁acordó	-13586
▁desmen	-13587
▁dureza	-13588
▁fereze	-13589
▁janxat	-13590
▁kunjam	-13591
▁merarí	-13592
▁munask	-13593
▁ninamp	-13594
▁organi	-13595
▁quehat	-13596
▁queman	-13597
▁sapxam	-13598
▁suegra	-13599
▁tinkuy	-13600
▁toquen	-13601
▁urunwa	-13602
▁viejos	-13603
▁volvía	-13604
▁yatipk	-13605
▁zafiro	-13606
achasïna	-13607
apxätawa	-13608
atapasti	-13609
escuchen	-13610
▁caminar	-13611
▁cunaquï	-13612
▁juzgado	-13613
▁phokher	-13614
▁qullqsa	-13615
▁salvado	-13616
▁soborno	-13617
▁uywirix	-13618
▁uñjasiy	-13619
▁uñtanim	-13620
▁visitar	-13621
▁ñanqhsa	-13622
achatäpan	-13623
apunïniwa	-13624
ochupjjam	-13625
▁consultó	-13626
▁cumplirá	-13627
▁habitará	-13628
▁hubieran	-13629
▁jupampix	-13630
▁lurquiti	-13631
▁martillo	-13632
▁perversa	-13633
▁petición	-13634
▁secretar	-13635
▁urunacan	-13636
▁axsarasaw	-13637
▁balaamajj	-13638
▁chekarojj	-13639
▁jiwasasti	-13640
▁kheparäna	-13641
▁kunakïkan	-13642
▁perecerán	-13643
▁phuqhasiñ	-13644
▁qawqhatix	-13645
▁tatitütax	-13646
▁uñjirinac	-13647
araquïyätwa	-13648
ascaraquïna	-13649
▁catusinjja	-13650
▁churapjjam	-13651
▁encuentren	-13652
▁khepürusti	-13653
▁llakisiñat	-13654
▁markaxarux	-13655
▁maynirusti	-13656
▁phuqhasïna	-13657
▁yatiractwa	-13658
▁arsutanakax	-13659
▁encontrarán	-13660
▁infidelidad	-13661
▁intenciones	-13662
▁jaqinakapax	-13663
▁jaqinakarus	-13664
▁juchanacajj	-13665
▁ochocientos	-13666
▁uyuchrantat	-13667
▁waquisquiti	-13668
▁circuncidado	-13669
▁perseverancia	-13670
▁khuyapayasiñap	-13671
▁quimsakallkoni	-13672
asá	-13673
ene	-13674
dada	-13675
ichi	-13676
rará	-13677
sube	-13678
veda	-13679
óset	-13680
▁ami	-13681
▁aod	-13682
▁hez	-13683
▁idi	-13684
▁riñ	-13685
cänsa	-13686
erojj	-13687
jjäta	-13688
ompir	-13689
tamos	-13690
äwimp	-13691
▁caná	-13692
▁juri	-13693
▁musi	-13694
▁voto	-13695
aytaxa	-13696
sartam	-13697
siones	-13698
ukamaw	-13699
▁acawa	-13700
▁apren	-13701
▁cawcs	-13702
▁cohat	-13703
▁dalil	-13704
▁dibón	-13705
▁eliel	-13706
▁hanún	-13707
▁intix	-13708
▁jalak	-13709
▁llamé	-13710
▁mayax	-13711
▁mesas	-13712
▁metió	-13713
▁nariz	-13714
▁poste	-13715
▁sayir	-13716
▁thayj	-13717
▁tomás	-13718
▁tukjä	-13719
▁veían	-13720
▁warmï	-13721
▁zacur	-13722
todavía	-13723
▁amargo	-13724
▁bendis	-13725
▁betuel	-13726
▁bóveda	-13727
▁cabras	-13728
▁carret	-13729
▁habite	-13730
▁infiel	-13731
▁jaktay	-13732
▁jayaru	-13733
▁juanax	-13734
▁pataru	-13735
▁rapiña	-13736
▁ucatsa	-13737
▁yatïta	-13738
anacapat	-13739
atakirak	-13740
atapatsa	-13741
atäjjäna	-13742
iqinakap	-13743
▁abigaíl	-13744
▁acabará	-13745
▁anunció	-13746
▁cuartel	-13747
▁faltará	-13748
▁humilde	-13749
▁irnaker	-13750
▁marcasa	-13751
▁paredes	-13752
▁pasando	-13753
▁protect	-13754
▁qalaray	-13755
▁reyipat	-13756
▁sándalo	-13757
▁waquisc	-13758
atäskänwa	-13759
kamakïnwa	-13760
▁arunakat	-13761
▁avergüen	-13762
▁bautisir	-13763
▁chachasa	-13764
▁consejos	-13765
▁cruzaron	-13766
▁escondió	-13767
▁jerobaal	-13768
▁katuyäna	-13769
▁multipli	-13770
▁parljjay	-13771
▁perdonar	-13772
▁rebelado	-13773
▁recuerda	-13774
▁sapjjewa	-13775
▁ururusti	-13776
▁uñisipjj	-13777
▁walïkiti	-13778
▁yokapawa	-13779
▁zebadías	-13780
anacanïnwa	-13781
ataraquiwa	-13782
▁arkapxäna	-13783
▁chicatani	-13784
▁colocaron	-13785
▁comenzado	-13786
▁ganancias	-13787
▁jichhüruw	-13788
▁jilïripat	-13789
▁marcapana	-13790
▁orgulloso	-13791
▁parábolas	-13792
▁represent	-13793
▁templopan	-13794
atapunïniwa	-13795
▁bautizados	-13796
▁diferentes	-13797
▁diosanakan	-13798
▁diosarusti	-13799
▁inclinaron	-13800
▁kamachisti	-13801
▁sarnakasiñ	-13802
▁testimonios	-13803
▁amparapampiw	-13804
▁mistunipxäna	-13805
bu	-13806
ría	-13807
óma	-13808
eruw	-13809
gran	-13810
guel	-13811
▁bez	-13812
▁dic	-13813
▁pin	-13814
▁tér	-13815
aleel	-13816
apkam	-13817
apuni	-13818
ecita	-13819
urusa	-13820
uñjam	-13821
▁anul	-13822
▁chac	-13823
▁jesé	-13824
▁niña	-13825
▁pida	-13826
▁rama	-13827
amatsa	-13828
añchañ	-13829
catapa	-13830
jjatap	-13831
xaniwa	-13832
▁apasx	-13833
▁darse	-13834
▁dilig	-13835
▁encer	-13836
▁janit	-13837
▁medir	-13838
▁ninan	-13839
▁qhath	-13840
▁salún	-13841
▁secas	-13842
▁vengo	-13843
ampikiw	-13844
ancänwa	-13845
aparuwa	-13846
atamjja	-13847
kamänwa	-13848
▁afirmó	-13849
▁anduvo	-13850
▁anthap	-13851
▁chhull	-13852
▁cubrir	-13853
▁estóma	-13854
▁etiope	-13855
▁goliat	-13856
▁jayank	-13857
▁jilant	-13858
▁persig	-13859
▁pesado	-13860
▁quedes	-13861
▁thiyat	-13862
▁vallen	-13863
▁valles	-13864
▁vivido	-13865
jjapjjta	-13866
walikiwa	-13867
▁aaronax	-13868
▁ankäjja	-13869
▁cabríos	-13870
▁chekajj	-13871
▁churqui	-13872
▁cometer	-13873
▁janjjat	-13874
▁oraketa	-13875
▁recogió	-13876
▁sembrar	-13877
▁thakhip	-13878
▁thayajj	-13879
▁topacio	-13880
▁ucqhana	-13881
▁uñjcata	-13882
▁uñjänwa	-13883
atäpjjäna	-13884
tatitusti	-13885
▁chicatan	-13886
▁completa	-13887
▁concibió	-13888
▁costados	-13889
▁hicieran	-13890
▁jalantañ	-13891
▁jaltxäna	-13892
▁juanasti	-13893
▁kamachix	-13894
▁orakepan	-13895
▁realizar	-13896
▁santific	-13897
▁saranucu	-13898
▁utjasqui	-13899
▁wasarana	-13900
▁yatiñanï	-13901
anakaparux	-13902
quiraquiwa	-13903
▁depósitos	-13904
▁desechado	-13905
▁judiöpkis	-13906
▁muyuntata	-13907
▁prodigios	-13908
▁reyirusti	-13909
▁taqpachax	-13910
▁camellonac	-13911
▁ovejanakax	-13912
▁purinjjewa	-13913
▁sacerdotep	-13914
▁sutipjjaru	-13915
▁urunakanxa	-13916
▁uñtatäniwa	-13917
▁castigarlos	-13918
▁jilïrinakax	-13919
▁kankañampiw	-13920
▁mantasinjja	-13921
▁tribulación	-13922
▁ucqhatpacha	-13923
▁yatiñataqui	-13924
▁sacerdoteruw	-13925
▁ukhamïpansti	-13926
▁sarapjjaraquïna	-13927
tt	-13928
bet	-13929
ijm	-13930
mti	-13931
ajjs	-13932
amam	-13933
dice	-13934
iero	-13935
mpis	-13936
uxch	-13937
▁tío	-13938
▁unx	-13939
irisa	-13940
iñäni	-13941
katap	-13942
kunsa	-13943
olvió	-13944
äwiwa	-13945
▁amuk	-13946
▁arut	-13947
▁dina	-13948
▁elio	-13949
▁gram	-13950
▁phat	-13951
▁remo	-13952
▁tutu	-13953
▁vina	-13954
asiñam	-13955
atapaw	-13956
egipto	-13957
tengan	-13958
unakap	-13959
unakar	-13960
▁achup	-13961
▁aldea	-13962
▁askit	-13963
▁defra	-13964
▁jiskh	-13965
▁khell	-13966
▁mamre	-13967
▁manqt	-13968
▁mayar	-13969
▁nahas	-13970
▁pensé	-13971
▁prisc	-13972
▁tucut	-13973
asipcän	-13974
asisajj	-13975
atäñapa	-13976
irjamäk	-13977
kätamti	-13978
taqpach	-13979
äpxänwa	-13980
▁alzada	-13981
▁amstan	-13982
▁cuesta	-13983
▁inútil	-13984
▁jalxat	-13985
▁jilxat	-13986
▁llover	-13987
▁mankha	-13988
▁mercad	-13989
▁micmas	-13990
▁reinop	-13991
▁satäki	-13992
▁susten	-13993
▁yejiel	-13994
apxtasti	-13995
atanakap	-13996
atäquiti	-13997
añapajja	-13998
iñataqui	-13999
quiraqui	-14000
▁hagamos	-14001
▁jakiriw	-14002
▁jupatix	-14003
▁marcapa	-14004
▁panpach	-14005
▁pasaban	-14006
▁pensaba	-14007
▁persuad	-14008
▁sapxiwa	-14009
▁thiyana	-14010
▁volvían	-14011
▁ajayumpi	-14012
▁arunakar	-14013
▁carcelar	-14014
▁chachawa	-14015
▁chhankha	-14016
▁clamaron	-14017
▁escapado	-14018
▁filistea	-14019
▁hablaban	-14020
▁hananías	-14021
▁jichhüru	-14022
▁layminak	-14023
▁llevaran	-14024
▁mankharu	-14025
▁mantiene	-14026
▁necesita	-14027
▁plenitud	-14028
▁preparar	-14029
▁qalltasa	-14030
▁repartió	-14031
▁reptiles	-14032
▁sutipxar	-14033
▁uchayäna	-14034
▁urunacaw	-14035
▁castigará	-14036
▁consagrar	-14037
▁pronunció	-14038
▁prostituy	-14039
▁utjcjjeti	-14040
asipuniniwa	-14041
▁chekpachan	-14042
▁embarazada	-14043
▁jakenacamp	-14044
▁reprensión	-14045
▁ucataracwa	-14046
ataquiraquiw	-14047
▁acompañaban	-14048
▁aruntanipjj	-14049
▁jonatanasti	-14050
▁masinakapan	-14051
▁luraskatayna	-14052
▁tranquilidad	-14053
▁chachanakampi	-14054
▁babilonianquir	-14055
▁tantachasipxäna	-14056
ron	-14057
uyw	-14058
xax	-14059
acer	-14060
ctas	-14061
cual	-14062
ient	-14063
siri	-14064
stay	-14065
▁set	-14066
▁uza	-14067
aaron	-14068
achor	-14069
casma	-14070
ceras	-14071
itapa	-14072
raste	-14073
sidad	-14074
ércol	-14075
▁acum	-14076
▁alzó	-14077
▁astu	-14078
▁grav	-14079
▁haci	-14080
▁mago	-14081
▁quej	-14082
astaxa	-14083
ayäjja	-14084
cchïna	-14085
cristo	-14086
itasma	-14087
▁awcch	-14088
▁awkir	-14089
▁ayuna	-14090
▁calum	-14091
▁jayan	-14092
▁keila	-14093
▁oirán	-14094
▁ponía	-14095
▁qamaq	-14096
▁sarti	-14097
▁sullk	-14098
▁suyun	-14099
▁vacan	-14100
casinsa	-14101
umaräjj	-14102
▁ajanum	-14103
▁cachor	-14104
▁chhakh	-14105
▁marcaw	-14106
▁muytan	-14107
▁servía	-14108
▁tukjañ	-14109
▁utaxan	-14110
▁uñjapc	-14111
▁uñjkañ	-14112
▁wakull	-14113
▁willir	-14114
ampiquiw	-14115
onacapsa	-14116
▁abomina	-14117
▁cilicia	-14118
▁codicia	-14119
▁echarán	-14120
▁fuentes	-14121
▁jaqimpi	-14122
▁jaqitak	-14123
▁jithiqt	-14124
▁jutaski	-14125
▁laboral	-14126
▁markana	-14127
▁parlask	-14128
▁puriyan	-14129
▁tendido	-14130
▁utjquis	-14131
▁wawaxay	-14132
▁angelajj	-14133
▁cimiento	-14134
▁continuo	-14135
▁engañado	-14136
▁gloriosa	-14137
▁inferior	-14138
▁juchanïs	-14139
▁katuntay	-14140
▁llaquisc	-14141
▁munañani	-14142
▁parlapxi	-14143
▁quedaban	-14144
▁sarakitu	-14145
▁sunamita	-14146
▁ucqharuw	-14147
▁wawanaca	-14148
anacamasti	-14149
▁afligidos	-14150
▁akapachar	-14151
▁apartaron	-14152
▁apnaqkäna	-14153
▁candelero	-14154
▁chiqapäki	-14155
▁cusisitaw	-14156
▁enramadas	-14157
▁fundición	-14158
▁jakapkäna	-14159
▁khespiyir	-14160
▁luraraqui	-14161
▁manifesta	-14162
▁munasiñam	-14163
▁yänacampi	-14164
apxarakïtam	-14165
▁chachanaca	-14166
▁chiqakamaw	-14167
▁convertida	-14168
▁distinción	-14169
▁enaltecido	-14170
▁obligación	-14171
▁rebeliones	-14172
▁revelación	-14173
▁uchapjjäna	-14174
▁ukkhatpach	-14175
▁awkinakaman	-14176
▁instrucción	-14177
▁jupanacaruw	-14178
▁khithankitu	-14179
▁proclamaron	-14180
▁ucanacatsti	-14181
▁utjcjjaniti	-14182
▁uñjirinakan	-14183
▁jilïrinacajj	-14184
▁sirviñataqui	-14185
▁wawanacapasa	-14186
▁qillqatankiwa	-14187
▁cawquïrirutejj	-14188
dí	-14189
atu	-14190
esí	-14191
riz	-14192
▁gi	-14193
alaw	-14194
apxä	-14195
ctsa	-14196
ktxa	-14197
xtwa	-14198
▁lig	-14199
▁paq	-14200
▁zac	-14201
camos	-14202
garás	-14203
ipajj	-14204
jamás	-14205
jumar	-14206
quiel	-14207
table	-14208
tador	-14209
tenle	-14210
▁acub	-14211
▁alin	-14212
▁beso	-14213
▁cart	-14214
▁cawc	-14215
▁elev	-14216
▁imer	-14217
▁send	-14218
▁surg	-14219
▁urim	-14220
▁éber	-14221
aphich	-14222
ktanti	-14223
tienes	-14224
▁abdón	-14225
▁altas	-14226
▁estim	-14227
▁gesur	-14228
▁gusta	-14229
▁imäwi	-14230
▁jabín	-14231
▁jesúa	-14232
▁juyra	-14233
▁kunja	-14234
▁lajjr	-14235
▁lomos	-14236
▁thurt	-14237
▁tófet	-14238
▁yuxch	-14239
▁zicri	-14240
amatjja	-14241
apuntwa	-14242
ficaron	-14243
inakasa	-14244
sacerdo	-14245
ukatsti	-14246
▁achach	-14247
▁celdas	-14248
▁dispos	-14249
▁imasit	-14250
▁jallux	-14251
▁jutqui	-14252
▁lázaro	-14253
▁menfis	-14254
▁muncañ	-14255
▁nayasa	-14256
▁pedron	-14257
▁reyïña	-14258
▁rodean	-14259
▁siente	-14260
araquita	-14261
añapcama	-14262
▁carmesí	-14263
▁churcta	-14264
▁declaro	-14265
▁desobed	-14266
▁háganlo	-14267
▁isboset	-14268
▁luraski	-14269
▁maligno	-14270
▁qamirip	-14271
▁uraqiru	-14272
▁walïqui	-14273
▁willjta	-14274
▁wiñayaw	-14275
aractamwa	-14276
araquistu	-14277
asipxänwa	-14278
▁antemano	-14279
▁churäwip	-14280
▁continuó	-14281
▁contrajj	-14282
▁conviene	-14283
▁infieles	-14284
▁jiwaniwa	-14285
▁khitinsa	-14286
▁quemaron	-14287
▁tropiezo	-14288
▁amtasipjj	-14289
▁bondadoso	-14290
▁considera	-14291
▁cumplirse	-14292
▁eliminado	-14293
▁kallunaca	-14294
▁nanacampi	-14295
▁perdonará	-14296
▁presenten	-14297
▁profetiza	-14298
▁uywanakax	-14299
▁uñjapxani	-14300
▁allchhinac	-14301
▁amalecitas	-14302
▁babiloniar	-14303
▁chachanaka	-14304
▁desprecian	-14305
▁estuvieran	-14306
▁jumanacasa	-14307
▁largorojja	-14308
▁mistunipjj	-14309
▁qhispiyita	-14310
▁samuelusti	-14311
▁utjkxaniti	-14312
jumanacatejj	-14313
▁calamidades	-14314
▁chacharusti	-14315
▁destruirlos	-14316
▁qillqatanak	-14317
▁wastatampiw	-14318
▁reconocieron	-14319
▁wawanacamajj	-14320
▁establecieron	-14321
cón	-14322
más	-14323
tin	-14324
▁od	-14325
atez	-14326
awja	-14327
ital	-14328
maxa	-14329
unar	-14330
▁ata	-14331
▁hus	-14332
▁tol	-14333
▁usu	-14334
▁uzá	-14335
enten	-14336
licas	-14337
ritos	-14338
uquis	-14339
▁khor	-14340
▁sanc	-14341
▁ukas	-14342
osible	-14343
▁alfar	-14344
▁antor	-14345
▁arojj	-14346
▁desat	-14347
▁excel	-14348
▁kallu	-14349
▁kotar	-14350
▁madru	-14351
▁ofend	-14352
▁probl	-14353
▁refle	-14354
▁temer	-14355
▁uksar	-14356
▁uskus	-14357
atäcani	-14358
caraquï	-14359
janikiy	-14360
pregunt	-14361
▁aceptó	-14362
▁alegró	-14363
▁cerdos	-14364
▁creció	-14365
▁esfuer	-14366
▁fiebre	-14367
▁gritar	-14368
▁pampar	-14369
▁satisf	-14370
▁siento	-14371
▁tokejj	-14372
▁tuncat	-14373
apxitani	-14374
araquïni	-14375
▁anqäxar	-14376
▁aparece	-14377
▁arusxat	-14378
▁churapk	-14379
▁cortado	-14380
▁entrega	-14381
▁esperar	-14382
▁fundido	-14383
▁llakisk	-14384
▁markank	-14385
▁pórtico	-14386
▁termina	-14387
▁vayamos	-14388
inaciones	-14389
▁apnaqani	-14390
▁bautista	-14391
▁cabritos	-14392
▁diosatak	-14393
▁elisabet	-14394
▁entregué	-14395
▁esclavas	-14396
▁jutasina	-14397
▁kalanaca	-14398
▁munasqui	-14399
▁parliriw	-14400
▁restauró	-14401
▁taypinwa	-14402
▁willitat	-14403
▁alcanzado	-14404
▁angelanac	-14405
▁constante	-14406
▁familiata	-14407
▁mefiboset	-14408
▁temblarán	-14409
▁acontecerá	-14410
▁amtasipxam	-14411
▁diosapasti	-14412
▁mistunisin	-14413
▁phiñasiñax	-14414
▁punkunakap	-14415
▁yatiyapxam	-14416
▁yupaychäna	-14417
▁chuymanacap	-14418
▁indignación	-14419
▁jikxatasïna	-14420
▁jilïrinacan	-14421
▁permanecerá	-14422
▁phuqhasiñap	-14423
▁qalanakampi	-14424
▁qhitanquitu	-14425
▁satisfechos	-14426
▁wawanakamax	-14427
▁bienaventurado	-14428
fá	-14429
há	-14430
bil	-14431
erï	-14432
mor	-14433
pay	-14434
umi	-14435
yat	-14436
[...]
